{
  "version": "1.0",
  "truncation": null,
  "padding": null,
  "added_tokens": [
    {
      "id": 0,
      "content": "[unknown]",
      "single_word": false,
      "lstrip": false,
      "rstrip": false,
      "normalized": false,
      "special": true
    },
    {
      "id": 1,
      "content": "[padding]",
      "single_word": false,
      "lstrip": false,
      "rstrip": false,
      "normalized": false,
      "special": true
    },
    {
      "id": 2,
      "content": "[classification]",
      "single_word": false,
      "lstrip": false,
      "rstrip": false,
      "normalized": false,
      "special": true
    },
    {
      "id": 3,
      "content": "[separator]",
      "single_word": false,
      "lstrip": false,
      "rstrip": false,
      "normalized": false,
      "special": true
    },
    {
      "id": 4,
      "content": "[mask]",
      "single_word": false,
      "lstrip": false,
      "rstrip": false,
      "normalized": false,
      "special": true
    }
  ],
  "normalizer": {
    "type": "Sequence",
    "normalizers": [
      {
        "type": "NFD"
      },
      {
        "type": "Lowercase"
      },
      {
        "type": "StripAccents"
      }
    ]
  },
  "pre_tokenizer": {
    "type": "Whitespace"
  },
  "post_processor": {
    "type": "TemplateProcessing",
    "single": [
      {
        "SpecialToken": {
          "id": "[classification]",
          "type_id": 0
        }
      },
      {
        "Sequence": {
          "id": "A",
          "type_id": 0
        }
      },
      {
        "SpecialToken": {
          "id": "[separator]",
          "type_id": 0
        }
      }
    ],
    "pair": [
      {
        "Sequence": {
          "id": "A",
          "type_id": 0
        }
      },
      {
        "Sequence": {
          "id": "B",
          "type_id": 1
        }
      }
    ],
    "special_tokens": {
      "[classification]": {
        "id": "[classification]",
        "ids": [
          2
        ],
        "tokens": [
          "[classification]"
        ]
      },
      "[separator]": {
        "id": "[separator]",
        "ids": [
          3
        ],
        "tokens": [
          "[separator]"
        ]
      }
    }
  },
  "decoder": null,
  "model": {
    "type": "BPE",
    "dropout": null,
    "unk_token": "[unknown]",
    "continuing_subword_prefix": null,
    "end_of_word_suffix": null,
    "fuse_unk": false,
    "byte_fallback": false,
    "ignore_merges": false,
    "vocab": {
      "[unknown]": 0,
      "[padding]": 1,
      "[classification]": 2,
      "[separator]": 3,
      "[mask]": 4,
      "\b": 5,
      "\u0010": 6,
      "\u0018": 7,
      "!": 8,
      "\"": 9,
      "#": 10,
      "$": 11,
      "%": 12,
      "&": 13,
      "'": 14,
      "(": 15,
      ")": 16,
      "*": 17,
      "+": 18,
      ",": 19,
      "-": 20,
      ".": 21,
      "/": 22,
      "0": 23,
      "1": 24,
      "2": 25,
      "3": 26,
      "4": 27,
      "5": 28,
      "6": 29,
      "7": 30,
      "8": 31,
      "9": 32,
      ":": 33,
      ";": 34,
      "<": 35,
      "=": 36,
      ">": 37,
      "?": 38,
      "@": 39,
      "[": 40,
      "\\": 41,
      "]": 42,
      "^": 43,
      "_": 44,
      "`": 45,
      "a": 46,
      "b": 47,
      "c": 48,
      "d": 49,
      "e": 50,
      "f": 51,
      "g": 52,
      "h": 53,
      "i": 54,
      "j": 55,
      "k": 56,
      "l": 57,
      "m": 58,
      "n": 59,
      "o": 60,
      "p": 61,
      "q": 62,
      "r": 63,
      "s": 64,
      "t": 65,
      "u": 66,
      "v": 67,
      "w": 68,
      "x": 69,
      "y": 70,
      "z": 71,
      "{": 72,
      "|": 73,
      "}": 74,
      "~": 75,
      "": 76,
      "": 77,
      "": 78,
      "": 79,
      "": 80,
      "": 81,
      "": 82,
      "": 83,
      "": 84,
      "": 85,
      "": 86,
      "": 87,
      "": 88,
      "¡": 89,
      "¢": 90,
      "£": 91,
      "¤": 92,
      "¥": 93,
      "¦": 94,
      "§": 95,
      "¨": 96,
      "©": 97,
      "ª": 98,
      "«": 99,
      "­": 100,
      "®": 101,
      "°": 102,
      "±": 103,
      "²": 104,
      "³": 105,
      "´": 106,
      "·": 107,
      "º": 108,
      "»": 109,
      "½": 110,
      "¾": 111,
      "¿": 112,
      "ß": 113,
      "æ": 114,
      "ð": 115,
      "ø": 116,
      "þ": 117,
      "ı": 118,
      "˙": 119,
      "μ": 120,
      "а": 121,
      "г": 122,
      "д": 123,
      "е": 124,
      "и": 125,
      "к": 126,
      "м": 127,
      "н": 128,
      "о": 129,
      "א": 130,
      "ג": 131,
      "ו": 132,
      "י": 133,
      "כ": 134,
      "ל": 135,
      "מ": 136,
      "ן": 137,
      "ר": 138,
      "–": 139,
      "‘": 140,
      "’": 141,
      "“": 142,
      "”": 143,
      "…": 144,
      "″": 145,
      "₤": 146,
      "▼": 147,
      "★": 148,
      "♦": 149,
      "、": 150,
      "戒": 151,
      "色": 152,
      "駩": 153,
      "": 154,
      "": 155,
      "！": 156,
      "，": 157,
      "ｃ": 158,
      "ｋ": 159,
      "ｏ": 160,
      "ｒ": 161,
      "th": 162,
      "in": 163,
      "the": 164,
      "an": 165,
      "er": 166,
      "re": 167,
      "is": 168,
      "on": 169,
      "en": 170,
      "at": 171,
      "to": 172,
      "ou": 173,
      "ing": 174,
      "es": 175,
      "al": 176,
      "it": 177,
      "as": 178,
      "and": 179,
      "or": 180,
      "ar": 181,
      "of": 182,
      "ed": 183,
      "il": 184,
      "st": 185,
      "ly": 186,
      "ch": 187,
      "le": 188,
      "se": 189,
      "om": 190,
      "be": 191,
      "mo": 192,
      "wh": 193,
      "ac": 194,
      "ic": 195,
      "ve": 196,
      "this": 197,
      "no": 198,
      "vi": 199,
      "ad": 200,
      "that": 201,
      "ver": 202,
      "lo": 203,
      "li": 204,
      "ut": 205,
      "ent": 206,
      "for": 207,
      "he": 208,
      "ter": 209,
      "ay": 210,
      "ion": 211,
      "am": 212,
      "im": 213,
      "gh": 214,
      "ro": 215,
      "un": 216,
      "was": 217,
      "wi": 218,
      "movi": 219,
      "fil": 220,
      "de": 221,
      "film": 222,
      "ke": 223,
      "with": 224,
      "ab": 225,
      "ri": 226,
      "el": 227,
      "ho": 228,
      "you": 229,
      "one": 230,
      "are": 231,
      "ld": 232,
      "movie": 233,
      "ha": 234,
      "but": 235,
      "ge": 236,
      "out": 237,
      "su": 238,
      "ir": 239,
      "di": 240,
      "go": 241,
      "so": 242,
      "pe": 243,
      "all": 244,
      "ce": 245,
      "ome": 246,
      "do": 247,
      "not": 248,
      "ul": 249,
      "po": 250,
      "ally": 251,
      "ther": 252,
      "ts": 253,
      "fe": 254,
      "tor": 255,
      "his": 256,
      "ma": 257,
      "sc": 258,
      "ne": 259,
      "com": 260,
      "her": 261,
      "tr": 262,
      "od": 263,
      "..": 264,
      "man": 265,
      "ill": 266,
      "us": 267,
      "me": 268,
      "ould": 269,
      "ur": 270,
      "ap": 271,
      "act": 272,
      "ex": 273,
      "have": 274,
      "some": 275,
      "ust": 276,
      "fr": 277,
      "who": 278,
      "per": 279,
      "pl": 280,
      "ct": 281,
      "ght": 282,
      "est": 283,
      "we": 284,
      "con": 285,
      "end": 286,
      "if": 287,
      "ess": 288,
      "by": 289,
      "very": 290,
      "thing": 291,
      "id": 292,
      "they": 293,
      "ain": 294,
      "wor": 295,
      "au": 296,
      "like": 297,
      "see": 298,
      "how": 299,
      "ere": 300,
      "ant": 301,
      "ag": 302,
      "bo": 303,
      "from": 304,
      "ell": 305,
      "ev": 306,
      "ple": 307,
      "tim": 308,
      "te": 309,
      "up": 310,
      "qu": 311,
      "ous": 312,
      "there": 313,
      "co": 314,
      "pre": 315,
      "art": 316,
      "sh": 317,
      "ok": 318,
      "pro": 319,
      "char": 320,
      "just": 321,
      "ation": 322,
      "ack": 323,
      "ast": 324,
      "what": 325,
      "oun": 326,
      "ough": 327,
      "my": 328,
      "has": 329,
      "way": 330,
      "ers": 331,
      "about": 332,
      "can": 333,
      "ate": 334,
      "ind": 335,
      "atch": 336,
      "any": 337,
      "other": 338,
      "ig": 339,
      "der": 340,
      "ive": 341,
      "good": 342,
      "ard": 343,
      "ment": 344,
      "ist": 345,
      "she": 346,
      "ol": 347,
      "more": 348,
      "get": 349,
      "acter": 350,
      "now": 351,
      "character": 352,
      "tory": 353,
      "when": 354,
      "watch": 355,
      "reat": 356,
      "ine": 357,
      "ure": 358,
      "gr": 359,
      "ich": 360,
      "ong": 361,
      "able": 362,
      "jo": 363,
      "ss": 364,
      "would": 365,
      "ity": 366,
      "sp": 367,
      "time": 368,
      "even": 369,
      "wn": 370,
      "ak": 371,
      "ame": 372,
      "most": 373,
      "ound": 374,
      "gu": 375,
      "our": 376,
      "ite": 377,
      "story": 378,
      "ck": 379,
      "ful": 380,
      "um": 381,
      "ra": 382,
      "ty": 383,
      "int": 384,
      "wo": 385,
      "which": 386,
      "their": 387,
      "only": 388,
      "well": 389,
      "scen": 390,
      "ci": 391,
      "really": 392,
      "ye": 393,
      "its": 394,
      "cl": 395,
      "than": 396,
      "show": 397,
      "ble": 398,
      "had": 399,
      "lot": 400,
      "bec": 401,
      "uch": 402,
      "pt": 403,
      "him": 404,
      "ight": 405,
      "play": 406,
      "af": 407,
      "were": 408,
      "did": 409,
      "sel": 410,
      "ink": 411,
      "ade": 412,
      "fo": 413,
      "ick": 414,
      "ies": 415,
      "don": 416,
      "look": 417,
      "does": 418,
      "...": 419,
      "over": 420,
      "aw": 421,
      "great": 422,
      "bad": 423,
      "pr": 424,
      "dis": 425,
      "br": 426,
      "itt": 427,
      "pp": 428,
      "ves": 429,
      "bl": 430,
      "bet": 431,
      "off": 432,
      "ep": 433,
      "ence": 434,
      "them": 435,
      "fa": 436,
      "ass": 437,
      "will": 438,
      "ars": 439,
      "low": 440,
      "ie": 441,
      "age": 442,
      "ice": 443,
      "much": 444,
      "ause": 445,
      "ish": 446,
      "every": 447,
      "know": 448,
      "fir": 449,
      "could": 450,
      "dire": 451,
      "real": 452,
      "peo": 453,
      "been": 454,
      "people": 455,
      "cr": 456,
      "into": 457,
      "also": 458,
      "mak": 459,
      "first": 460,
      "make": 461,
      "ber": 462,
      "ud": 463,
      "because": 464,
      "ort": 465,
      "think": 466,
      "fun": 467,
      "du": 468,
      "ser": 469,
      "son": 470,
      "ire": 471,
      "ving": 472,
      "ll": 473,
      "ff": 474,
      "then": 475,
      "where": 476,
      "ace": 477,
      "made": 478,
      "too": 479,
      "wr": 480,
      "after": 481,
      "ew": 482,
      "inter": 483,
      "thr": 484,
      "ile": 485,
      "work": 486,
      "ide": 487,
      "mar": 488,
      "self": 489,
      "part": 490,
      "ever": 491,
      "movies": 492,
      "spe": 493,
      "cre": 494,
      "seem": 495,
      "say": 496,
      "dr": 497,
      "des": 498,
      ").": 499,
      "ps": 500,
      "characters": 501,
      "ated": 502,
      "ach": 503,
      "ang": 504,
      "fl": 505,
      "ical": 506,
      "though": 507,
      "love": 508,
      "ious": 509,
      "tain": 510,
      "back": 511,
      "actor": 512,
      "ting": 513,
      "hor": 514,
      "view": 515,
      "ren": 516,
      "min": 517,
      "films": 518,
      "fin": 519,
      "ans": 520,
      "ny": 521,
      "two": 522,
      "many": 523,
      "less": 524,
      "plot": 525,
      "day": 526,
      "being": 527,
      "never": 528,
      "life": 529,
      "your": 530,
      "ance": 531,
      "ary": 532,
      "ef": 533,
      "acting": 534,
      "tal": 535,
      "seen": 536,
      "sho": 537,
      "gi": 538,
      "ces": 539,
      "str": 540,
      "ta": 541,
      "best": 542,
      "here": 543,
      "litt": 544,
      "tur": 545,
      "),": 546,
      "ction": 547,
      "little": 548,
      "ens": 549,
      "mat": 550,
      "new": 551,
      "ved": 552,
      "ctor": 553,
      "through": 554,
      "try": 555,
      "ree": 556,
      "cent": 557,
      "may": 558,
      "mis": 559,
      "igh": 560,
      "ose": 561,
      "kill": 562,
      "sa": 563,
      "iz": 564,
      "che": 565,
      "19": 566,
      "fri": 567,
      "amer": 568,
      "fore": 569,
      "while": 570,
      "ually": 571,
      "gen": 572,
      "point": 573,
      "car": 574,
      "better": 575,
      "ict": 576,
      "ven": 577,
      "ot": 578,
      "sur": 579,
      "--": 580,
      "ily": 581,
      "under": 582,
      "scene": 583,
      "ry": 584,
      "still": 585,
      "mon": 586,
      "tru": 587,
      "find": 588,
      "ning": 589,
      "perfor": 590,
      "should": 591,
      "augh": 592,
      "these": 593,
      "par": 594,
      "won": 595,
      "want": 596,
      "again": 597,
      "old": 598,
      "op": 599,
      "why": 600,
      "!!": 601,
      "ase": 602,
      "ild": 603,
      "scenes": 604,
      "et": 605,
      "les": 606,
      "ertain": 607,
      "feel": 608,
      "ought": 609,
      "cast": 610,
      "read": 611,
      "something": 612,
      "interest": 613,
      "stand": 614,
      "cho": 615,
      "sim": 616,
      "happ": 617,
      "director": 618,
      "friend": 619,
      "10": 620,
      "sto": 621,
      "tri": 622,
      "such": 623,
      "ste": 624,
      "ph": 625,
      "beli": 626,
      "ror": 627,
      "ath": 628,
      "irl": 629,
      "vers": 630,
      "ense": 631,
      "action": 632,
      "girl": 633,
      "scre": 634,
      "ins": 635,
      "ably": 636,
      "ise": 637,
      "turn": 638,
      "fam": 639,
      "wom": 640,
      "those": 641,
      "war": 642,
      "ating": 643,
      "guy": 644,
      "funny": 645,
      "down": 646,
      "joy": 647,
      "long": 648,
      "ob": 649,
      "red": 650,
      "performan": 651,
      "ason": 652,
      "pret": 653,
      "mus": 654,
      "tak": 655,
      "star": 656,
      "got": 657,
      "watching": 658,
      "comm": 659,
      "actors": 660,
      "doesn": 661,
      "arly": 662,
      "ian": 663,
      "ip": 664,
      "ents": 665,
      "big": 666,
      "didn": 667,
      "right": 668,
      "comed": 669,
      "ash": 670,
      "years": 671,
      "em": 672,
      "another": 673,
      "times": 674,
      "pos": 675,
      "going": 676,
      "mem": 677,
      "bu": 678,
      "att": 679,
      "set": 680,
      "makes": 681,
      "ng": 682,
      "before": 683,
      "vis": 684,
      "nothing": 685,
      "actually": 686,
      "produ": 687,
      "high": 688,
      "enjoy": 689,
      "young": 690,
      "gl": 691,
      "ways": 692,
      "bit": 693,
      "inal": 694,
      "vo": 695,
      "ater": 696,
      "put": 697,
      "world": 698,
      "bro": 699,
      "ave": 700,
      "sm": 701,
      "ial": 702,
      "same": 703,
      "hu": 704,
      "fect": 705,
      "sub": 706,
      "few": 707,
      "ions": 708,
      "cle": 709,
      "je": 710,
      "diff": 711,
      "laugh": 712,
      "exc": 713,
      "orig": 714,
      "own": 715,
      "king": 716,
      "far": 717,
      "let": 718,
      "illi": 719,
      "cts": 720,
      "az": 721,
      "wood": 722,
      "horror": 723,
      "ute": 724,
      "hard": 725,
      "**": 726,
      "ner": 727,
      "ted": 728,
      "icul": 729,
      "screen": 730,
      "come": 731,
      "comes": 732,
      "ks": 733,
      "por": 734,
      "comple": 735,
      "cor": 736,
      "appe": 737,
      "bor": 738,
      "sing": 739,
      "pect": 740,
      "sin": 741,
      "light": 742,
      "things": 743,
      "person": 744,
      "ster": 745,
      "ual": 746,
      "quite": 747,
      "kid": 748,
      "fact": 749,
      "thought": 750,
      "pretty": 751,
      "col": 752,
      "inv": 753,
      "ten": 754,
      "ween": 755,
      "around": 756,
      "americ": 757,
      "hel": 758,
      "seems": 759,
      "take": 760,
      "cial": 761,
      "ript": 762,
      "mind": 763,
      "writ": 764,
      "ress": 765,
      "original": 766,
      "give": 767,
      "sex": 768,
      "aren": 769,
      "howe": 770,
      "sure": 771,
      "need": 772,
      "however": 773,
      "enough": 774,
      "rel": 775,
      "kind": 776,
      "beg": 777,
      "both": 778,
      "bas": 779,
      "wonder": 780,
      "tell": 781,
      "cept": 782,
      "saw": 783,
      "ically": 784,
      "cont": 785,
      "must": 786,
      "fort": 787,
      "aut": 788,
      "main": 789,
      "ward": 790,
      "boy": 791,
      "interesting": 792,
      "add": 793,
      "worth": 794,
      "lead": 795,
      "ody": 796,
      "ia": 797,
      "care": 798,
      "vel": 799,
      "hand": 800,
      "cour": 801,
      "comedy": 802,
      "pa": 803,
      "between": 804,
      "ations": 805,
      "script": 806,
      "class": 807,
      "call": 808,
      "ately": 809,
      "used": 810,
      "mom": 811,
      "music": 812,
      "gets": 813,
      "clo": 814,
      "ness": 815,
      "ced": 816,
      "ending": 817,
      "series": 818,
      "val": 819,
      "press": 820,
      "expect": 821,
      "form": 822,
      "bar": 823,
      "sequ": 824,
      "without": 825,
      "line": 826,
      "row": 827,
      "role": 828,
      "child": 829,
      "done": 830,
      "reason": 831,
      "head": 832,
      "vious": 833,
      "ger": 834,
      "ale": 835,
      "isn": 836,
      "cess": 837,
      "last": 838,
      "cine": 839,
      "always": 840,
      "wer": 841,
      "coun": 842,
      "whole": 843,
      "pol": 844,
      "app": 845,
      "differ": 846,
      "\",": 847,
      "utes": 848,
      "led": 849,
      "beaut": 850,
      "almost": 851,
      "\".": 852,
      "ue": 853,
      "least": 854,
      "grap": 855,
      "night": 856,
      "start": 857,
      "sound": 858,
      "pres": 859,
      "lin": 860,
      "run": 861,
      "na": 862,
      "cap": 863,
      "hy": 864,
      "away": 865,
      "might": 866,
      "alo": 867,
      "ings": 868,
      "use": 869,
      "making": 870,
      "spo": 871,
      "tem": 872,
      "men": 873,
      "complete": 874,
      "tv": 875,
      "mas": 876,
      "minutes": 877,
      "book": 878,
      "ane": 879,
      "prob": 880,
      "comp": 881,
      "nor": 882,
      "ug": 883,
      "ft": 884,
      "rible": 885,
      "ms": 886,
      "land": 887,
      "mot": 888,
      "hn": 889,
      "since": 890,
      "ying": 891,
      "family": 892,
      "stu": 893,
      "lly": 894,
      "audi": 895,
      "00": 896,
      "tw": 897,
      "sol": 898,
      "yes": 899,
      "cond": 900,
      "anything": 901,
      "hal": 902,
      "pie": 903,
      "entertain": 904,
      "med": 905,
      "yet": 906,
      "tit": 907,
      "pris": 908,
      "eve": 909,
      "fol": 910,
      "ible": 911,
      "performance": 912,
      "woman": 913,
      "peri": 914,
      "ouse": 915,
      "espe": 916,
      "mean": 917,
      "blo": 918,
      "probably": 919,
      "sy": 920,
      "bre": 921,
      "john": 922,
      "ange": 923,
      "poss": 924,
      "found": 925,
      "played": 926,
      "har": 927,
      "dram": 928,
      "uring": 929,
      "poor": 930,
      "cially": 931,
      "fi": 932,
      "ons": 933,
      "ked": 934,
      "place": 935,
      "mur": 936,
      "ature": 937,
      "hum": 938,
      "ional": 939,
      "da": 940,
      "ult": 941,
      "top": 942,
      "iful": 943,
      "rather": 944,
      "unt": 945,
      "oney": 946,
      "dialo": 947,
      "den": 948,
      "worst": 949,
      "anyone": 950,
      "ark": 951,
      "cur": 952,
      "each": 953,
      "bud": 954,
      "cli": 955,
      "ign": 956,
      "keep": 957,
      "cut": 958,
      "ments": 959,
      "different": 960,
      "rid": 961,
      "happen": 962,
      "having": 963,
      "sid": 964,
      "ext": 965,
      "sl": 966,
      "wal": 967,
      "ative": 968,
      "looking": 969,
      "mer": 970,
      "especially": 971,
      "dv": 972,
      "rest": 973,
      "body": 974,
      "trying": 975,
      "cu": 976,
      "believe": 977,
      "vin": 978,
      ".\"": 979,
      "second": 980,
      "side": 981,
      "ca": 982,
      "cid": 983,
      "house": 984,
      "dvd": 985,
      "black": 986,
      "course": 987,
      "although": 988,
      "beautiful": 989,
      "direct": 990,
      "amp": 991,
      "creat": 992,
      "goes": 993,
      "mor": 994,
      "miss": 995,
      "plays": 996,
      "help": 997,
      "pict": 998,
      "american": 999,
      "fan": 1000,
      "istic": 1001,
      "sense": 1002,
      "ither": 1003,
      "gether": 1004,
      "job": 1005,
      "together": 1006,
      "maybe": 1007,
      "certain": 1008,
      "chr": 1009,
      "ingly": 1010,
      "shows": 1011,
      "three": 1012,
      "fects": 1013,
      "everything": 1014,
      "dead": 1015,
      "plo": 1016,
      "ni": 1017,
      "ton": 1018,
      "epis": 1019,
      "vor": 1020,
      "commend": 1021,
      "proble": 1022,
      "fall": 1023,
      "human": 1024,
      "stead": 1025,
      "once": 1026,
      "father": 1027,
      "sup": 1028,
      "mi": 1029,
      "death": 1030,
      "....": 1031,
      "fully": 1032,
      "money": 1033,
      "half": 1034,
      "year": 1035,
      "la": 1036,
      "vide": 1037,
      "special": 1038,
      "posed": 1039,
      "effects": 1040,
      "member": 1041,
      "usu": 1042,
      "ics": 1043,
      "super": 1044,
      "someone": 1045,
      "looks": 1046,
      "imp": 1047,
      "ates": 1048,
      "ds": 1049,
      "rom": 1050,
      "imag": 1051,
      "ank": 1052,
      "sit": 1053,
      "wasn": 1054,
      "recommend": 1055,
      "true": 1056,
      "wa": 1057,
      "reg": 1058,
      "ilar": 1059,
      "perfect": 1060,
      "everyone": 1061,
      "lu": 1062,
      "follow": 1063,
      "gener": 1064,
      "sty": 1065,
      "rele": 1066,
      "anim": 1067,
      "vid": 1068,
      "takes": 1069,
      "ear": 1070,
      "pul": 1071,
      "ross": 1072,
      "understand": 1073,
      "iting": 1074,
      "ele": 1075,
      "bly": 1076,
      "obvious": 1077,
      "during": 1078,
      "plain": 1079,
      "spect": 1080,
      "nice": 1081,
      "instead": 1082,
      "watched": 1083,
      "said": 1084,
      "ney": 1085,
      "que": 1086,
      "ship": 1087,
      "ants": 1088,
      "cou": 1089,
      "ality": 1090,
      "cal": 1091,
      "gue": 1092,
      "hour": 1093,
      "ling": 1094,
      "short": 1095,
      "shot": 1096,
      "camer": 1097,
      "excell": 1098,
      "sk": 1099,
      "later": 1100,
      "piece": 1101,
      "dan": 1102,
      "wife": 1103,
      "ru": 1104,
      "else": 1105,
      "audience": 1106,
      "ences": 1107,
      "review": 1108,
      "simp": 1109,
      "ore": 1110,
      "itch": 1111,
      "cer": 1112,
      "hero": 1113,
      "fel": 1114,
      "incl": 1115,
      "ames": 1116,
      "bur": 1117,
      "begin": 1118,
      "cy": 1119,
      "ism": 1120,
      "io": 1121,
      "fre": 1122,
      "himself": 1123,
      "excellent": 1124,
      "left": 1125,
      "tra": 1126,
      "llywood": 1127,
      "seeing": 1128,
      "sil": 1129,
      "tray": 1130,
      "face": 1131,
      "als": 1132,
      "log": 1133,
      "fer": 1134,
      "invol": 1135,
      "defin": 1136,
      "came": 1137,
      "serious": 1138,
      "home": 1139,
      "idea": 1140,
      "eas": 1141,
      "version": 1142,
      "stup": 1143,
      "ned": 1144,
      "ired": 1145,
      "heart": 1146,
      "ited": 1147,
      "xt": 1148,
      "ists": 1149,
      "entire": 1150,
      "cra": 1151,
      "fortun": 1152,
      "ond": 1153,
      "sci": 1154,
      "stupid": 1155,
      "along": 1156,
      "budget": 1157,
      "friends": 1158,
      "production": 1159,
      "simply": 1160,
      "scho": 1161,
      "mother": 1162,
      "using": 1163,
      "air": 1164,
      "ject": 1165,
      "sat": 1166,
      "sad": 1167,
      "picture": 1168,
      "dou": 1169,
      "school": 1170,
      "fair": 1171,
      "ition": 1172,
      "completely": 1173,
      "0s": 1174,
      "open": 1175,
      "video": 1176,
      "ters": 1177,
      "attem": 1178,
      "disap": 1179,
      "lack": 1180,
      "pass": 1181,
      "suc": 1182,
      "remember": 1183,
      "ends": 1184,
      "cing": 1185,
      "believ": 1186,
      "dri": 1187,
      "wrong": 1188,
      "hollywood": 1189,
      "given": 1190,
      "ones": 1191,
      "win": 1192,
      "boring": 1193,
      "full": 1194,
      "ah": 1195,
      "viol": 1196,
      "women": 1197,
      "band": 1198,
      "dark": 1199,
      "disappoint": 1200,
      "mess": 1201,
      "fight": 1202,
      "absol": 1203,
      "portray": 1204,
      "tic": 1205,
      "cover": 1206,
      "typ": 1207,
      "power": 1208,
      "except": 1209,
      "camera": 1210,
      "either": 1211,
      "cop": 1212,
      "ared": 1213,
      "eng": 1214,
      "absolute": 1215,
      "kids": 1216,
      "cus": 1217,
      "performances": 1218,
      "pport": 1219,
      "supposed": 1220,
      "song": 1221,
      "tom": 1222,
      "small": 1223,
      "surpris": 1224,
      "hope": 1225,
      "vic": 1226,
      "until": 1227,
      "num": 1228,
      "couple": 1229,
      "next": 1230,
      "amaz": 1231,
      "name": 1232,
      "gg": 1233,
      "murder": 1234,
      "consid": 1235,
      "sul": 1236,
      "awful": 1237,
      "av": 1238,
      "classic": 1239,
      "pri": 1240,
      "die": 1241,
      "mid": 1242,
      "case": 1243,
      "emot": 1244,
      "cas": 1245,
      "gar": 1246,
      "ley": 1247,
      "fail": 1248,
      "jack": 1249,
      "flick": 1250,
      "omb": 1251,
      "sever": 1252,
      "getting": 1253,
      "truly": 1254,
      "humor": 1255,
      "vent": 1256,
      "ries": 1257,
      "dre": 1258,
      "consider": 1259,
      "ator": 1260,
      "graphy": 1261,
      "particul": 1262,
      "itten": 1263,
      "ities": 1264,
      "haps": 1265,
      "present": 1266,
      "bert": 1267,
      "definite": 1268,
      "velo": 1269,
      "oh": 1270,
      "lig": 1271,
      "brother": 1272,
      "perhaps": 1273,
      "ready": 1274,
      "favor": 1275,
      "exam": 1276,
      "playing": 1277,
      "moments": 1278,
      "live": 1279,
      "mr": 1280,
      "ird": 1281,
      "lines": 1282,
      "pain": 1283,
      "terrible": 1284,
      "feature": 1285,
      "deser": 1286,
      "male": 1287,
      "quest": 1288,
      "sort": 1289,
      "drama": 1290,
      "style": 1291,
      "develo": 1292,
      "itself": 1293,
      "includ": 1294,
      "god": 1295,
      "experi": 1296,
      "teen": 1297,
      "others": 1298,
      "bb": 1299,
      "ring": 1300,
      "ler": 1301,
      "room": 1302,
      "town": 1303,
      "slow": 1304,
      "ming": 1305,
      "coming": 1306,
      "uni": 1307,
      "talent": 1308,
      "tern": 1309,
      "doing": 1310,
      "stars": 1311,
      "ital": 1312,
      "master": 1313,
      "dy": 1314,
      "dist": 1315,
      "wonderful": 1316,
      "written": 1317,
      "leg": 1318,
      ",\"": 1319,
      "iness": 1320,
      "often": 1321,
      "plan": 1322,
      "guess": 1323,
      "mich": 1324,
      "oc": 1325,
      "definitely": 1326,
      "gives": 1327,
      "mention": 1328,
      "break": 1329,
      "ode": 1330,
      "appear": 1331,
      "crim": 1332,
      "dialogue": 1333,
      "ility": 1334,
      "unfortun": 1335,
      "loved": 1336,
      "turns": 1337,
      "fant": 1338,
      "children": 1339,
      "hon": 1340,
      "unch": 1341,
      "aged": 1342,
      "went": 1343,
      "early": 1344,
      "liked": 1345,
      "actress": 1346,
      "title": 1347,
      "ali": 1348,
      "brilli": 1349,
      "strong": 1350,
      "ages": 1351,
      "cinemat": 1352,
      "deli": 1353,
      "known": 1354,
      "ize": 1355,
      "entertaining": 1356,
      "lost": 1357,
      "couldn": 1358,
      "sor": 1359,
      "ased": 1360,
      "desp": 1361,
      "extre": 1362,
      "mag": 1363,
      "tly": 1364,
      "bus": 1365,
      "key": 1366,
      "episode": 1367,
      "dep": 1368,
      "conf": 1369,
      "fac": 1370,
      "direction": 1371,
      "ese": 1372,
      "pu": 1373,
      "thrill": 1374,
      "certainly": 1375,
      "become": 1376,
      "ground": 1377,
      "os": 1378,
      "impress": 1379,
      "pred": 1380,
      "gun": 1381,
      "gre": 1382,
      "cinema": 1383,
      "felt": 1384,
      "spir": 1385,
      "based": 1386,
      "pat": 1387,
      "called": 1388,
      "absolutely": 1389,
      "ended": 1390,
      "sha": 1391,
      "indi": 1392,
      "possible": 1393,
      "develop": 1394,
      "spoil": 1395,
      "ann": 1396,
      "finally": 1397,
      "mal": 1398,
      "vill": 1399,
      "credi": 1400,
      "game": 1401,
      "nam": 1402,
      "lie": 1403,
      "track": 1404,
      "psy": 1405,
      "close": 1406,
      "guys": 1407,
      "several": 1408,
      "overall": 1409,
      "worse": 1410,
      "problem": 1411,
      "relation": 1412,
      "blood": 1413,
      "extreme": 1414,
      "list": 1415,
      "genre": 1416,
      "sou": 1417,
      "fans": 1418,
      "ju": 1419,
      "cred": 1420,
      "evil": 1421,
      "against": 1422,
      "white": 1423,
      "mentary": 1424,
      "mark": 1425,
      "van": 1426,
      "lear": 1427,
      "brilliant": 1428,
      "beginning": 1429,
      "pur": 1430,
      "hold": 1431,
      "days": 1432,
      "tries": 1433,
      "arch": 1434,
      "rus": 1435,
      "tot": 1436,
      "waste": 1437,
      "gor": 1438,
      "lives": 1439,
      "selves": 1440,
      "susp": 1441,
      "fine": 1442,
      "hop": 1443,
      "myster": 1444,
      "type": 1445,
      "grou": 1446,
      "wanted": 1447,
      "effect": 1448,
      "success": 1449,
      "ention": 1450,
      "jor": 1451,
      "final": 1452,
      "totally": 1453,
      "attempt": 1454,
      "ues": 1455,
      "ball": 1456,
      "seemed": 1457,
      "despite": 1458,
      "writer": 1459,
      "killer": 1460,
      "memor": 1461,
      "daugh": 1462,
      "prom": 1463,
      "ith": 1464,
      "ized": 1465,
      "ken": 1466,
      "ier": 1467,
      "colle": 1468,
      "touch": 1469,
      "ben": 1470,
      "christ": 1471,
      "bri": 1472,
      "throughout": 1473,
      "nat": 1474,
      "lea": 1475,
      "explo": 1476,
      "prof": 1477,
      "sum": 1478,
      "engl": 1479,
      "unfortunately": 1480,
      "becomes": 1481,
      "bi": 1482,
      "already": 1483,
      "sis": 1484,
      "deal": 1485,
      "city": 1486,
      "past": 1487,
      "ret": 1488,
      "history": 1489,
      "bin": 1490,
      "lar": 1491,
      "support": 1492,
      "decid": 1493,
      "quality": 1494,
      "si": 1495,
      "works": 1496,
      "hind": 1497,
      "allow": 1498,
      "aring": 1499,
      "ures": 1500,
      "import": 1501,
      "crit": 1502,
      "hell": 1503,
      "stuff": 1504,
      "ael": 1505,
      "wish": 1506,
      "ding": 1507,
      "ams": 1508,
      "sw": 1509,
      "gy": 1510,
      "docu": 1511,
      "bed": 1512,
      "writing": 1513,
      "adm": 1514,
      "vision": 1515,
      "bal": 1516,
      "parts": 1517,
      "horrible": 1518,
      "tech": 1519,
      "anno": 1520,
      "today": 1521,
      "stay": 1522,
      "hun": 1523,
      "wants": 1524,
      "ude": 1525,
      "ific": 1526,
      "killed": 1527,
      "example": 1528,
      "ull": 1529,
      "iv": 1530,
      "matter": 1531,
      "200": 1532,
      "foot": 1533,
      "wise": 1534,
      "din": 1535,
      "hilar": 1536,
      "rif": 1537,
      "usual": 1538,
      "soon": 1539,
      "pick": 1540,
      "michael": 1541,
      "hit": 1542,
      "speak": 1543,
      "convin": 1544,
      "lad": 1545,
      "mad": 1546,
      "non": 1547,
      "none": 1548,
      "ek": 1549,
      "viewer": 1550,
      "level": 1551,
      "contin": 1552,
      "ris": 1553,
      "word": 1554,
      "rating": 1555,
      "situ": 1556,
      "sle": 1557,
      "etc": 1558,
      "stop": 1559,
      "pho": 1560,
      "daughter": 1561,
      "chang": 1562,
      "amazing": 1563,
      "atic": 1564,
      "mc": 1565,
      "vol": 1566,
      "hus": 1567,
      "mil": 1568,
      "police": 1569,
      "apparen": 1570,
      "girls": 1571,
      "group": 1572,
      "enjoyed": 1573,
      "directed": 1574,
      "antic": 1575,
      "starts": 1576,
      "themselves": 1577,
      "late": 1578,
      "pay": 1579,
      "decent": 1580,
      "??": 1581,
      "rock": 1582,
      "cult": 1583,
      "var": 1584,
      "novel": 1585,
      "intel": 1586,
      "exact": 1587,
      "aim": 1588,
      "score": 1589,
      "behind": 1590,
      "wes": 1591,
      "ket": 1592,
      "eyes": 1593,
      "fig": 1594,
      "hot": 1595,
      "ago": 1596,
      "gave": 1597,
      "ors": 1598,
      "ker": 1599,
      "favorite": 1600,
      "looked": 1601,
      "major": 1602,
      "ky": 1603,
      "dog": 1604,
      "ried": 1605,
      "rent": 1606,
      "ery": 1607,
      "vil": 1608,
      "anger": 1609,
      "roll": 1610,
      "void": 1611,
      "cool": 1612,
      "trans": 1613,
      "thinking": 1614,
      "lim": 1615,
      "fron": 1616,
      "oper": 1617,
      "obviously": 1618,
      "stud": 1619,
      "sometimes": 1620,
      "moment": 1621,
      "pose": 1622,
      "four": 1623,
      "del": 1624,
      "swe": 1625,
      "sequel": 1626,
      "event": 1627,
      "hilarious": 1628,
      "believable": 1629,
      "dra": 1630,
      "tent": 1631,
      "myself": 1632,
      "cost": 1633,
      "violence": 1634,
      "gn": 1635,
      "scar": 1636,
      "dam": 1637,
      "heard": 1638,
      "incredi": 1639,
      "predict": 1640,
      "antly": 1641,
      "husband": 1642,
      "tail": 1643,
      "iculous": 1644,
      "law": 1645,
      "says": 1646,
      "soci": 1647,
      "stra": 1648,
      "arr": 1649,
      "dum": 1650,
      "order": 1651,
      "brit": 1652,
      "lan": 1653,
      "strange": 1654,
      "sent": 1655,
      "tele": 1656,
      "experience": 1657,
      "took": 1658,
      "highly": 1659,
      "explain": 1660,
      "shock": 1661,
      "stories": 1662,
      "move": 1663,
      "ail": 1664,
      "clear": 1665,
      "bring": 1666,
      "ident": 1667,
      "feeling": 1668,
      "happens": 1669,
      "honest": 1670,
      "voice": 1671,
      "mart": 1672,
      "taking": 1673,
      "desc": 1674,
      "appro": 1675,
      "anyway": 1676,
      "gang": 1677,
      "extremely": 1678,
      "forget": 1679,
      "ridiculous": 1680,
      "cinemato": 1681,
      "dle": 1682,
      "happened": 1683,
      "lou": 1684,
      "told": 1685,
      "ished": 1686,
      "step": 1687,
      "polit": 1688,
      "living": 1689,
      "david": 1690,
      "ards": 1691,
      "turned": 1692,
      "leave": 1693,
      "sym": 1694,
      "fut": 1695,
      "rench": 1696,
      "deep": 1697,
      "abo": 1698,
      "frank": 1699,
      "wouldn": 1700,
      "involved": 1701,
      "cheap": 1702,
      "roles": 1703,
      "gore": 1704,
      "willi": 1705,
      "check": 1706,
      "whe": 1707,
      "graph": 1708,
      "paren": 1709,
      "weak": 1710,
      "uses": 1711,
      "makers": 1712,
      "quick": 1713,
      "taken": 1714,
      "resul": 1715,
      "opin": 1716,
      "including": 1717,
      "!!!": 1718,
      "change": 1719,
      "ured": 1720,
      "ys": 1721,
      "crap": 1722,
      "country": 1723,
      "jok": 1724,
      "rip": 1725,
      "ches": 1726,
      "capt": 1727,
      "wit": 1728,
      "save": 1729,
      "bel": 1730,
      "dies": 1731,
      "simple": 1732,
      "ham": 1733,
      "astic": 1734,
      "robert": 1735,
      "free": 1736,
      ".)": 1737,
      "natur": 1738,
      "pleas": 1739,
      "hen": 1740,
      "recent": 1741,
      "chance": 1742,
      "bers": 1743,
      "james": 1744,
      "inst": 1745,
      "build": 1746,
      "please": 1747,
      "box": 1748,
      "expected": 1749,
      "moder": 1750,
      "across": 1751,
      "ban": 1752,
      "doub": 1753,
      "realistic": 1754,
      "wards": 1755,
      "happy": 1756,
      "pped": 1757,
      "typical": 1758,
      "fire": 1759,
      "particularly": 1760,
      "itive": 1761,
      "zy": 1762,
      "usually": 1763,
      "ats": 1764,
      "cannot": 1765,
      "bot": 1766,
      "hours": 1767,
      "stru": 1768,
      "stree": 1769,
      "zomb": 1770,
      "career": 1771,
      "annoying": 1772,
      "20": 1773,
      "ints": 1774,
      "vir": 1775,
      "avoid": 1776,
      "jud": 1777,
      "dro": 1778,
      "sam": 1779,
      "words": 1780,
      "bey": 1781,
      "huge": 1782,
      "ders": 1783,
      "dec": 1784,
      "english": 1785,
      "ering": 1786,
      "sun": 1787,
      "reality": 1788,
      "important": 1789,
      "ford": 1790,
      "exactly": 1791,
      "res": 1792,
      "suff": 1793,
      "rated": 1794,
      "acted": 1795,
      "lik": 1796,
      "preci": 1797,
      "sn": 1798,
      "near": 1799,
      "batt": 1800,
      "straight": 1801,
      "seriously": 1802,
      "plac": 1803,
      "documentary": 1804,
      "talk": 1805,
      "similar": 1806,
      "relationship": 1807,
      "suspense": 1808,
      "dest": 1809,
      "oo": 1810,
      "alone": 1811,
      "tre": 1812,
      "fast": 1813,
      "bab": 1814,
      "ral": 1815,
      "apart": 1816,
      "photo": 1817,
      "number": 1818,
      "shown": 1819,
      "197": 1820,
      "running": 1821,
      "treat": 1822,
      "released": 1823,
      "ze": 1824,
      "lee": 1825,
      "villain": 1826,
      "geor": 1827,
      "ational": 1828,
      "earth": 1829,
      "sen": 1830,
      "thor": 1831,
      "ances": 1832,
      "female": 1833,
      "secre": 1834,
      "local": 1835,
      "opening": 1836,
      "jokes": 1837,
      "among": 1838,
      "dialog": 1839,
      "whose": 1840,
      "mist": 1841,
      "camp": 1842,
      "middle": 1843,
      "roy": 1844,
      "grand": 1845,
      "modern": 1846,
      "fur": 1847,
      "space": 1848,
      "musical": 1849,
      "scary": 1850,
      "ently": 1851,
      "eye": 1852,
      "train": 1853,
      "publ": 1854,
      "enty": 1855,
      "198": 1856,
      "saying": 1857,
      "shots": 1858,
      "ls": 1859,
      "cinematography": 1860,
      "lit": 1861,
      "yor": 1862,
      "possi": 1863,
      "agon": 1864,
      "silly": 1865,
      "sch": 1866,
      "yourself": 1867,
      "learn": 1868,
      "omin": 1869,
      "somewhat": 1870,
      "ied": 1871,
      "mostly": 1872,
      "ow": 1873,
      "opinion": 1874,
      "gold": 1875,
      "basically": 1876,
      "stick": 1877,
      "shi": 1878,
      "finds": 1879,
      "ref": 1880,
      "loc": 1881,
      "ili": 1882,
      "western": 1883,
      "hear": 1884,
      "appears": 1885,
      "apparently": 1886,
      "hom": 1887,
      "rad": 1888,
      "started": 1889,
      "rich": 1890,
      "tle": 1891,
      "attention": 1892,
      "itting": 1893,
      "ump": 1894,
      "plic": 1895,
      "team": 1896,
      "sets": 1897,
      "bing": 1898,
      "disappointed": 1899,
      "giving": 1900,
      "mee": 1901,
      "single": 1902,
      "front": 1903,
      "beyond": 1904,
      "fly": 1905,
      "****": 1906,
      "predictable": 1907,
      "bs": 1908,
      "french": 1909,
      "due": 1910,
      "suck": 1911,
      "ush": 1912,
      "sold": 1913,
      "talking": 1914,
      "ina": 1915,
      "thetic": 1916,
      "richar": 1917,
      "comment": 1918,
      "respect": 1919,
      "equ": 1920,
      "detail": 1921,
      "pping": 1922,
      "survi": 1923,
      "water": 1924,
      "net": 1925,
      "thriller": 1926,
      "knew": 1927,
      "knows": 1928,
      "intellig": 1929,
      "cru": 1930,
      "lies": 1931,
      "popul": 1932,
      "search": 1933,
      "sign": 1934,
      "remind": 1935,
      "pac": 1936,
      "famous": 1937,
      "question": 1938,
      "han": 1939,
      "sequence": 1940,
      "lor": 1941,
      "parents": 1942,
      "flo": 1943,
      "clearly": 1944,
      "season": 1945,
      "ake": 1946,
      "hate": 1947,
      "beat": 1948,
      "problems": 1949,
      "post": 1950,
      "drug": 1951,
      "gay": 1952,
      "future": 1953,
      "upon": 1954,
      "aver": 1955,
      "utter": 1956,
      "state": 1957,
      "easy": 1958,
      "stage": 1959,
      "sequences": 1960,
      "eu": 1961,
      "exist": 1962,
      "199": 1963,
      "british": 1964,
      "imagin": 1965,
      "twist": 1966,
      "fest": 1967,
      "ony": 1968,
      "ered": 1969,
      "attack": 1970,
      "falls": 1971,
      "tect": 1972,
      "usion": 1973,
      "atmo": 1974,
      "sexual": 1975,
      "necess": 1976,
      "events": 1977,
      "andy": 1978,
      "bill": 1979,
      "!\"": 1980,
      "tells": 1981,
      "cident": 1982,
      "romantic": 1983,
      "hood": 1984,
      "flash": 1985,
      "jap": 1986,
      "atmosp": 1987,
      "prison": 1988,
      "intro": 1989,
      "prise": 1990,
      "const": 1991,
      "unk": 1992,
      "comic": 1993,
      "carto": 1994,
      "throw": 1995,
      "previous": 1996,
      "vice": 1997,
      "television": 1998,
      "ask": 1999,
      "effort": 2000,
      "erial": 2001,
      "appreci": 2002,
      "ability": 2003,
      "truth": 2004,
      "entertainment": 2005,
      "trou": 2006,
      "lots": 2007,
      "george": 2008,
      "episod": 2009,
      "named": 2010,
      "above": 2011,
      "issu": 2012,
      "hi": 2013,
      "aught": 2014,
      "kept": 2015,
      "moving": 2016,
      "ino": 2017,
      "concer": 2018,
      "theat": 2019,
      "japan": 2020,
      "tar": 2021,
      "easily": 2022,
      "unlike": 2023,
      "bul": 2024,
      "haven": 2025,
      "richard": 2026,
      "points": 2027,
      "personal": 2028,
      "working": 2029,
      "port": 2030,
      "max": 2031,
      "ised": 2032,
      "eless": 2033,
      "subject": 2034,
      "bes": 2035,
      "telling": 2036,
      "bra": 2037,
      "dream": 2038,
      "dull": 2039,
      "pen": 2040,
      "within": 2041,
      "paul": 2042,
      "setting": 2043,
      "pal": 2044,
      "five": 2045,
      "victim": 2046,
      "difficul": 2047,
      "uck": 2048,
      "enjoyable": 2049,
      "cat": 2050,
      "ses": 2051,
      "filmed": 2052,
      "bunch": 2053,
      "mise": 2054,
      "arely": 2055,
      "storyline": 2056,
      "agree": 2057,
      "gle": 2058,
      "narr": 2059,
      "tale": 2060,
      "gone": 2061,
      "flaw": 2062,
      "period": 2063,
      "ost": 2064,
      "creep": 2065,
      "material": 2066,
      "general": 2067,
      "gan": 2068,
      "york": 2069,
      "public": 2070,
      "doubt": 2071,
      "round": 2072,
      "supporting": 2073,
      "wait": 2074,
      "odd": 2075,
      "deed": 2076,
      "claim": 2077,
      "advent": 2078,
      "soundtrack": 2079,
      "fiel": 2080,
      "peter": 2081,
      "ceed": 2082,
      "episodes": 2083,
      "ultim": 2084,
      "crime": 2085,
      "kick": 2086,
      "message": 2087,
      "hol": 2088,
      "slight": 2089,
      "sorry": 2090,
      "ii": 2091,
      "whether": 2092,
      "rap": 2093,
      "profess": 2094,
      "inno": 2095,
      "mix": 2096,
      "release": 2097,
      "prin": 2098,
      "ba": 2099,
      "count": 2100,
      "mystery": 2101,
      "theme": 2102,
      "monster": 2103,
      "pathetic": 2104,
      "large": 2105,
      "ged": 2106,
      "surprised": 2107,
      "songs": 2108,
      "repe": 2109,
      "ension": 2110,
      "50": 2111,
      "elements": 2112,
      "bat": 2113,
      "dden": 2114,
      "note": 2115,
      "visual": 2116,
      "sugg": 2117,
      "teach": 2118,
      "buy": 2119,
      "met": 2120,
      "tried": 2121,
      "aid": 2122,
      "path": 2123,
      "els": 2124,
      "minute": 2125,
      "america": 2126,
      "rown": 2127,
      "resp": 2128,
      "brain": 2129,
      "lady": 2130,
      "rol": 2131,
      "needs": 2132,
      "attr": 2133,
      "begins": 2134,
      "express": 2135,
      "iction": 2136,
      "chris": 2137,
      "viewing": 2138,
      "showing": 2139,
      "viewers": 2140,
      "sister": 2141,
      "forward": 2142,
      "business": 2143,
      "jer": 2144,
      "lat": 2145,
      "shoo": 2146,
      "30": 2147,
      "dramatic": 2148,
      "afr": 2149,
      "acy": 2150,
      "reve": 2151,
      "theater": 2152,
      "comments": 2153,
      "ution": 2154,
      "'.": 2155,
      "match": 2156,
      "conne": 2157,
      "ray": 2158,
      "feels": 2159,
      "dance": 2160,
      "pet": 2161,
      "means": 2162,
      "ety": 2163,
      "okay": 2164,
      "lon": 2165,
      "doctor": 2166,
      "mary": 2167,
      "mass": 2168,
      "medi": 2169,
      "',": 2170,
      "contain": 2171,
      "studi": 2172,
      "leads": 2173,
      "difficult": 2174,
      "meaning": 2175,
      "grow": 2176,
      "ially": 2177,
      "ives": 2178,
      "exe": 2179,
      "writers": 2180,
      "nearly": 2181,
      "asy": 2182,
      "sudden": 2183,
      "brought": 2184,
      "joe": 2185,
      "natural": 2186,
      "herself": 2187,
      "potent": 2188,
      "otic": 2189,
      "third": 2190,
      "paris": 2191,
      "editing": 2192,
      "boys": 2193,
      "adap": 2194,
      "mach": 2195,
      "killing": 2196,
      "actual": 2197,
      "decided": 2198,
      "ott": 2199,
      "introdu": 2200,
      "accept": 2201,
      "fantastic": 2202,
      "catch": 2203,
      "ously": 2204,
      "somehow": 2205,
      "crew": 2206,
      "flu": 2207,
      "wil": 2208,
      "sed": 2209,
      "imagine": 2210,
      "pts": 2211,
      "chees": 2212,
      "cin": 2213,
      "mel": 2214,
      "fit": 2215,
      "aust": 2216,
      "lier": 2217,
      "average": 2218,
      "fran": 2219,
      "rac": 2220,
      "ights": 2221,
      "kills": 2222,
      "reviews": 2223,
      "stere": 2224,
      "vamp": 2225,
      "bil": 2226,
      "jim": 2227,
      "psycho": 2228,
      "hur": 2229,
      "forced": 2230,
      "pure": 2231,
      "shame": 2232,
      "stereo": 2233,
      "ula": 2234,
      "surprise": 2235,
      "ury": 2236,
      "background": 2237,
      "figure": 2238,
      "deliver": 2239,
      "secret": 2240,
      "ening": 2241,
      "fresh": 2242,
      "possibly": 2243,
      "descri": 2244,
      "whatever": 2245,
      "luck": 2246,
      "ular": 2247,
      "rate": 2248,
      "san": 2249,
      "lock": 2250,
      "lame": 2251,
      "commun": 2252,
      "berg": 2253,
      "demon": 2254,
      "board": 2255,
      "!!!!": 2256,
      "!)": 2257,
      "premise": 2258,
      "battle": 2259,
      "liter": 2260,
      "greatest": 2261,
      "fas": 2262,
      "clever": 2263,
      "oscar": 2264,
      "refer": 2265,
      "poorly": 2266,
      "rific": 2267,
      "indeed": 2268,
      "street": 2269,
      "hair": 2270,
      "eventually": 2271,
      "ines": 2272,
      "island": 2273,
      "pan": 2274,
      "gest": 2275,
      "weird": 2276,
      "db": 2277,
      "thy": 2278,
      "german": 2279,
      "cted": 2280,
      "ran": 2281,
      "baby": 2282,
      "cir": 2283,
      "society": 2284,
      "focus": 2285,
      "animation": 2286,
      "atmosphere": 2287,
      "standing": 2288,
      "ka": 2289,
      "accent": 2290,
      "interested": 2291,
      "dress": 2292,
      "ric": 2293,
      "plus": 2294,
      "heav": 2295,
      "reading": 2296,
      "sal": 2297,
      "sens": 2298,
      "ched": 2299,
      "convincing": 2300,
      "situation": 2301,
      "contr": 2302,
      "stal": 2303,
      "wall": 2304,
      "venge": 2305,
      "?\"": 2306,
      "effective": 2307,
      "otherwise": 2308,
      "nature": 2309,
      "leaves": 2310,
      "era": 2311,
      "romance": 2312,
      "discover": 2313,
      "week": 2314,
      "leading": 2315,
      "trave": 2316,
      "ging": 2317,
      "road": 2318,
      "bored": 2319,
      "stun": 2320,
      "reco": 2321,
      "amoun": 2322,
      "anna": 2323,
      "force": 2324,
      "phil": 2325,
      "imdb": 2326,
      "logical": 2327,
      "particular": 2328,
      "rit": 2329,
      "worked": 2330,
      "memorable": 2331,
      "rup": 2332,
      "cons": 2333,
      "ko": 2334,
      "terror": 2335,
      "len": 2336,
      "total": 2337,
      "aging": 2338,
      "became": 2339,
      "emotional": 2340,
      "zz": 2341,
      "write": 2342,
      "appeal": 2343,
      "sick": 2344,
      "footage": 2345,
      "further": 2346,
      "cul": 2347,
      "screenplay": 2348,
      "offic": 2349,
      "ghost": 2350,
      "alien": 2351,
      "credits": 2352,
      "strug": 2353,
      "meet": 2354,
      "needed": 2355,
      "cheesy": 2356,
      "apped": 2357,
      "mentioned": 2358,
      "hands": 2359,
      "jour": 2360,
      "towards": 2361,
      "dem": 2362,
      "dim": 2363,
      "concl": 2364,
      "earlier": 2365,
      "80": 2366,
      "sleep": 2367,
      "ped": 2368,
      "ugh": 2369,
      "ga": 2370,
      "thank": 2371,
      "result": 2372,
      "stri": 2373,
      "whom": 2374,
      "features": 2375,
      "euro": 2376,
      "wol": 2377,
      "unless": 2378,
      "mes": 2379,
      "unique": 2380,
      "field": 2381,
      "ub": 2382,
      "copy": 2383,
      "perfectly": 2384,
      "exper": 2385,
      "flat": 2386,
      "vampire": 2387,
      "gri": 2388,
      "emp": 2389,
      "iment": 2390,
      "laughs": 2391,
      "distur": 2392,
      "doll": 2393,
      "powerful": 2394,
      "william": 2395,
      "popular": 2396,
      "ager": 2397,
      "cross": 2398,
      "histor": 2399,
      "regard": 2400,
      "fu": 2401,
      "gotten": 2402,
      "satis": 2403,
      "quickly": 2404,
      "milli": 2405,
      "smo": 2406,
      "ica": 2407,
      "extra": 2408,
      "keeps": 2409,
      "rand": 2410,
      "execut": 2411,
      "cape": 2412,
      "suggest": 2413,
      "tori": 2414,
      "ghts": 2415,
      "meant": 2416,
      "fairly": 2417,
      "emotion": 2418,
      "badly": 2419,
      "ians": 2420,
      "recogn": 2421,
      "cock": 2422,
      "crazy": 2423,
      "cers": 2424,
      "older": 2425,
      "masterpiece": 2426,
      "idi": 2427,
      "aked": 2428,
      "famili": 2429,
      "ising": 2430,
      "dumb": 2431,
      "thus": 2432,
      "dow": 2433,
      "ana": 2434,
      "girlfriend": 2435,
      "superb": 2436,
      "various": 2437,
      "196": 2438,
      "meets": 2439,
      "familiar": 2440,
      "imm": 2441,
      "hill": 2442,
      "insp": 2443,
      "anti": 2444,
      "company": 2445,
      "cry": 2446,
      "bru": 2447,
      "embar": 2448,
      "store": 2449,
      "fat": 2450,
      "trash": 2451,
      "drag": 2452,
      "directing": 2453,
      "scott": 2454,
      "realize": 2455,
      "development": 2456,
      "occas": 2457,
      "revol": 2458,
      "ths": 2459,
      "color": 2460,
      "fighting": 2461,
      "sounds": 2462,
      "cute": 2463,
      "tes": 2464,
      "create": 2465,
      "inside": 2466,
      "invest": 2467,
      "ges": 2468,
      "acts": 2469,
      "scient": 2470,
      "brothers": 2471,
      "cro": 2472,
      "japanese": 2473,
      "science": 2474,
      "prim": 2475,
      "beauty": 2476,
      "fred": 2477,
      "ient": 2478,
      "incredibly": 2479,
      "party": 2480,
      "plenty": 2481,
      "former": 2482,
      "spirit": 2483,
      "langu": 2484,
      "disney": 2485,
      "concept": 2486,
      "\")": 2487,
      "social": 2488,
      "brings": 2489,
      "table": 2490,
      "ron": 2491,
      "cartoon": 2492,
      "directors": 2493,
      "sweet": 2494,
      "test": 2495,
      "married": 2496,
      "ares": 2497,
      "outside": 2498,
      "nud": 2499,
      "political": 2500,
      "necessary": 2501,
      "members": 2502,
      "wers": 2503,
      "fear": 2504,
      "missing": 2505,
      "green": 2506,
      "escape": 2507,
      "ival": 2508,
      "joke": 2509,
      "reasons": 2510,
      "ices": 2511,
      "talented": 2512,
      "created": 2513,
      "design": 2514,
      "wild": 2515,
      "ius": 2516,
      "gover": 2517,
      "filled": 2518,
      "manages": 2519,
      "angel": 2520,
      "casting": 2521,
      "chann": 2522,
      "sem": 2523,
      "recor": 2524,
      "admit": 2525,
      "creepy": 2526,
      "?)": 2527,
      "reveal": 2528,
      "died": 2529,
      "mac": 2530,
      "door": 2531,
      "ki": 2532,
      "ti": 2533,
      "remake": 2534,
      "portrayed": 2535,
      "contri": 2536,
      "return": 2537,
      "ideas": 2538,
      "allen": 2539,
      "wasted": 2540,
      "itted": 2541,
      "194": 2542,
      "arri": 2543,
      "ded": 2544,
      "hid": 2545,
      "ague": 2546,
      "(\"": 2547,
      "nic": 2548,
      "detect": 2549,
      "15": 2550,
      "cold": 2551,
      "sell": 2552,
      "laughing": 2553,
      "trail": 2554,
      "actions": 2555,
      "fails": 2556,
      "deserves": 2557,
      "squ": 2558,
      "common": 2559,
      "wind": 2560,
      "caught": 2561,
      "following": 2562,
      "sand": 2563,
      "sar": 2564,
      "spent": 2565,
      "fantasy": 2566,
      "biz": 2567,
      "logy": 2568,
      "lyn": 2569,
      "lid": 2570,
      "project": 2571,
      "desper": 2572,
      "accur": 2573,
      "potential": 2574,
      "mou": 2575,
      "ordin": 2576,
      "amount": 2577,
      "nudity": 2578,
      "aste": 2579,
      "shad": 2580,
      "produced": 2581,
      "danger": 2582,
      "zombie": 2583,
      "expecting": 2584,
      "spoilers": 2585,
      "office": 2586,
      "iff": 2587,
      "bir": 2588,
      "italian": 2589,
      "filmmakers": 2590,
      "hitch": 2591,
      "193": 2592,
      "aster": 2593,
      "chase": 2594,
      "accident": 2595,
      "phys": 2596,
      "pace": 2597,
      "gress": 2598,
      "brief": 2599,
      "hardly": 2600,
      "active": 2601,
      "lect": 2602,
      "pack": 2603,
      "stre": 2604,
      "def": 2605,
      "suit": 2606,
      "adapt": 2607,
      "intri": 2608,
      "rass": 2609,
      "reach": 2610,
      "rick": 2611,
      "recently": 2612,
      "ram": 2613,
      "itation": 2614,
      "90": 2615,
      "spl": 2616,
      "subtle": 2617,
      "nie": 2618,
      "worthy": 2619,
      "credit": 2620,
      "iel": 2621,
      "violent": 2622,
      "positive": 2623,
      "sess": 2624,
      "pse": 2625,
      "rote": 2626,
      "missed": 2627,
      "west": 2628,
      "relig": 2629,
      "shar": 2630,
      "grant": 2631,
      "dar": 2632,
      "ships": 2633,
      "za": 2634,
      "attempts": 2635,
      "fash": 2636,
      "national": 2637,
      "vant": 2638,
      "ung": 2639,
      "195": 2640,
      "remo": 2641,
      "fascin": 2642,
      "sher": 2643,
      "embarrass": 2644,
      "esome": 2645,
      "neither": 2646,
      "waiting": 2647,
      "trouble": 2648,
      "nu": 2649,
      "wrote": 2650,
      "ined": 2651,
      "pointless": 2652,
      "mere": 2653,
      "genu": 2654,
      "slightly": 2655,
      "inform": 2656,
      "exciting": 2657,
      "six": 2658,
      "bomb": 2659,
      "kar": 2660,
      "mir": 2661,
      "compe": 2662,
      "complex": 2663,
      "value": 2664,
      "ax": 2665,
      "immedi": 2666,
      "europe": 2667,
      "intelligent": 2668,
      "harry": 2669,
      "walk": 2670,
      "hang": 2671,
      "xic": 2672,
      "considering": 2673,
      "funni": 2674,
      "culture": 2675,
      "genuine": 2676,
      "requ": 2677,
      "language": 2678,
      "cause": 2679,
      "onic": 2680,
      "maker": 2681,
      "bob": 2682,
      "choice": 2683,
      "tough": 2684,
      "cide": 2685,
      "approach": 2686,
      "minor": 2687,
      "suddenly": 2688,
      "bust": 2689,
      "sters": 2690,
      "broad": 2691,
      "bility": 2692,
      "fiction": 2693,
      "comput": 2694,
      "ns": 2695,
      "entirely": 2696,
      "successful": 2697,
      "scream": 2698,
      "sadly": 2699,
      "eli": 2700,
      "mission": 2701,
      "rece": 2702,
      "glad": 2703,
      "blow": 2704,
      "century": 2705,
      "ory": 2706,
      "hey": 2707,
      "normal": 2708,
      "combin": 2709,
      "tort": 2710,
      "born": 2711,
      "neg": 2712,
      "rey": 2713,
      "bother": 2714,
      "bizar": 2715,
      "impressive": 2716,
      "depend": 2717,
      "solid": 2718,
      "elling": 2719,
      "crow": 2720,
      "decides": 2721,
      "ples": 2722,
      "inspired": 2723,
      "dir": 2724,
      "wed": 2725,
      "asher": 2726,
      "college": 2727,
      "gust": 2728,
      "ises": 2729,
      "compared": 2730,
      "follows": 2731,
      "counter": 2732,
      "deem": 2733,
      "producers": 2734,
      "rain": 2735,
      "ero": 2736,
      "draw": 2737,
      "cam": 2738,
      "types": 2739,
      "thanks": 2740,
      "blue": 2741,
      "portrayal": 2742,
      "tension": 2743,
      "lets": 2744,
      "pieces": 2745,
      "spot": 2746,
      "jump": 2747,
      "base": 2748,
      "smart": 2749,
      "brut": 2750,
      "vour": 2751,
      "sees": 2752,
      "pop": 2753,
      "thom": 2754,
      "situations": 2755,
      "incredible": 2756,
      "ultimately": 2757,
      "amusing": 2758,
      "fashion": 2759,
      "ura": 2760,
      "gram": 2761,
      "bizarre": 2762,
      "adventure": 2763,
      "moves": 2764,
      "control": 2765,
      "trad": 2766,
      "appreciate": 2767,
      "akes": 2768,
      "involving": 2769,
      "ides": 2770,
      "loy": 2771,
      "awesome": 2772,
      "psych": 2773,
      "izing": 2774,
      "plane": 2775,
      "revenge": 2776,
      "bling": 2777,
      "longer": 2778,
      "notice": 2779,
      "aper": 2780,
      "dad": 2781,
      "gent": 2782,
      "depress": 2783,
      "appearance": 2784,
      "ald": 2785,
      "ya": 2786,
      "slasher": 2787,
      "govern": 2788,
      "depth": 2789,
      "ensive": 2790,
      "sey": 2791,
      "terri": 2792,
      "ja": 2793,
      "delight": 2794,
      "younger": 2795,
      "mill": 2796,
      "yeah": 2797,
      "continu": 2798,
      "bles": 2799,
      "aside": 2800,
      "fell": 2801,
      "jane": 2802,
      "alive": 2803,
      "wash": 2804,
      "answer": 2805,
      "jew": 2806,
      "fake": 2807,
      "spend": 2808,
      "humour": 2809,
      "jones": 2810,
      "decide": 2811,
      "purpose": 2812,
      "basic": 2813,
      "pil": 2814,
      "runs": 2815,
      "presented": 2816,
      "shoot": 2817,
      "wolf": 2818,
      "stone": 2819,
      "cliche": 2820,
      "shooting": 2821,
      "grade": 2822,
      "changed": 2823,
      "milit": 2824,
      "legend": 2825,
      "mysterious": 2826,
      "manner": 2827,
      "geous": 2828,
      "bond": 2829,
      "studio": 2830,
      "date": 2831,
      "pportun": 2832,
      "smith": 2833,
      "tun": 2834,
      "russ": 2835,
      "likes": 2836,
      "biggest": 2837,
      "recommended": 2838,
      "ride": 2839,
      "channel": 2840,
      "questions": 2841,
      "enn": 2842,
      "opportun": 2843,
      "ites": 2844,
      "bell": 2845,
      "rect": 2846,
      "avail": 2847,
      "lam": 2848,
      "investig": 2849,
      "ku": 2850,
      "respons": 2851,
      "bon": 2852,
      "heavy": 2853,
      "cell": 2854,
      "iced": 2855,
      "martin": 2856,
      "books": 2857,
      "proper": 2858,
      "grad": 2859,
      "south": 2860,
      "glo": 2861,
      "charles": 2862,
      "standard": 2863,
      "garb": 2864,
      "prove": 2865,
      "genius": 2866,
      "impossible": 2867,
      "critic": 2868,
      "issues": 2869,
      "pract": 2870,
      "mood": 2871,
      "faith": 2872,
      "park": 2873,
      "carry": 2874,
      "gas": 2875,
      "andre": 2876,
      "cher": 2877,
      "magic": 2878,
      "silent": 2879,
      "club": 2880,
      "drive": 2881,
      "criminal": 2882,
      "starring": 2883,
      "taste": 2884,
      "barely": 2885,
      "dun": 2886,
      "iss": 2887,
      "anth": 2888,
      "haun": 2889,
      "itor": 2890,
      "developed": 2891,
      "leaving": 2892,
      "images": 2893,
      "ived": 2894,
      "surprisingly": 2895,
      "uc": 2896,
      "turning": 2897,
      "hall": 2898,
      "100": 2899,
      "robin": 2900,
      "threat": 2901,
      "termin": 2902,
      "iers": 2903,
      "detective": 2904,
      "leng": 2905,
      "values": 2906,
      "thinks": 2907,
      "conclusion": 2908,
      "random": 2909,
      "rob": 2910,
      "added": 2911,
      "gree": 2912,
      "13": 2913,
      "assu": 2914,
      "festival": 2915,
      "bruce": 2916,
      "finish": 2917,
      "weren": 2918,
      "nast": 2919,
      "mistry": 2920,
      "consist": 2921,
      "adult": 2922,
      "ization": 2923,
      "literally": 2924,
      "showed": 2925,
      "insul": 2926,
      "ateur": 2927,
      "chemistry": 2928,
      "favour": 2929,
      "costum": 2930,
      "loud": 2931,
      "depict": 2932,
      "honestly": 2933,
      "fool": 2934,
      "ults": 2935,
      "pair": 2936,
      "chan": 2937,
      "exception": 2938,
      "70": 2939,
      "trip": 2940,
      "changes": 2941,
      "edge": 2942,
      "failed": 2943,
      "places": 2944,
      "via": 2945,
      "soul": 2946,
      "garbage": 2947,
      "race": 2948,
      "rog": 2949,
      "disturbing": 2950,
      "redeem": 2951,
      "occur": 2952,
      "indust": 2953,
      "grace": 2954,
      "jean": 2955,
      "dancing": 2956,
      "gro": 2957,
      "juli": 2958,
      "kes": 2959,
      "load": 2960,
      "enter": 2961,
      "complain": 2962,
      "wis": 2963,
      "drink": 2964,
      "amateur": 2965,
      "sexy": 2966,
      "satisf": 2967,
      "government": 2968,
      "arily": 2969,
      "charlie": 2970,
      "techn": 2971,
      "ened": 2972,
      "rema": 2973,
      "immediately": 2974,
      "innocent": 2975,
      "army": 2976,
      "tone": 2977,
      "reli": 2978,
      "obsess": 2979,
      "flashback": 2980,
      "phy": 2981,
      "witness": 2982,
      "computer": 2983,
      "pects": 2984,
      "singing": 2985,
      "ordinary": 2986,
      "journey": 2987,
      "pun": 2988,
      "minis": 2989,
      "boss": 2990,
      "remain": 2991,
      "nobody": 2992,
      "producer": 2993,
      "sion": 2994,
      "core": 2995,
      "building": 2996,
      "nick": 2997,
      "nowhere": 2998,
      "pictures": 2999,
      "likable": 3000,
      "naked": 3001,
      "ene": 3002,
      "cks": 3003,
      "remark": 3004,
      "***": 3005,
      "million": 3006,
      "names": 3007,
      "chin": 3008,
      "knowing": 3009,
      "aff": 3010,
      "gory": 3011,
      "chick": 3012,
      "author": 3013,
      "considered": 3014,
      "alex": 3015,
      "spoiler": 3016,
      "sof": 3017,
      "ener": 3018,
      "aus": 3019,
      "available": 3020,
      "bought": 3021,
      "chap": 3022,
      "loose": 3023,
      "intrigu": 3024,
      "crash": 3025,
      "news": 3026,
      "audiences": 3027,
      "disco": 3028,
      "yed": 3029,
      "mexic": 3030,
      "interview": 3031,
      "generally": 3032,
      "passion": 3033,
      "somewhere": 3034,
      "twists": 3035,
      "esh": 3036,
      "curi": 3037,
      "presence": 3038,
      "climax": 3039,
      "shadow": 3040,
      "aspect": 3041,
      "beha": 3042,
      "loves": 3043,
      "bear": 3044,
      "military": 3045,
      "ilt": 3046,
      "neigh": 3047,
      "steal": 3048,
      "prot": 3049,
      "gag": 3050,
      "iny": 3051,
      "succeed": 3052,
      "comedies": 3053,
      "belief": 3054,
      "queen": 3055,
      "rare": 3056,
      "essent": 3057,
      "everybody": 3058,
      "sky": 3059,
      "confl": 3060,
      "trust": 3061,
      "bled": 3062,
      "moral": 3063,
      "evid": 3064,
      "gry": 3065,
      "bottom": 3066,
      "utterly": 3067,
      "appeared": 3068,
      "animated": 3069,
      "lay": 3070,
      "riage": 3071,
      "freak": 3072,
      "ests": 3073,
      "init": 3074,
      "appy": 3075,
      "indian": 3076,
      "intent": 3077,
      "noir": 3078,
      "chuck": 3079,
      "flow": 3080,
      "suspect": 3081,
      "watchable": 3082,
      "000": 3083,
      "kno": 3084,
      "hook": 3085,
      "destroy": 3086,
      "phone": 3087,
      "motion": 3088,
      "historical": 3089,
      "likely": 3090,
      "personally": 3091,
      "melo": 3092,
      "billy": 3093,
      "tend": 3094,
      "stock": 3095,
      "walking": 3096,
      "beautifully": 3097,
      "cum": 3098,
      "correct": 3099,
      "witch": 3100,
      "anda": 3101,
      "terms": 3102,
      "exp": 3103,
      "sitting": 3104,
      "steve": 3105,
      "verse": 3106,
      "affair": 3107,
      "soldiers": 3108,
      "dor": 3109,
      "coll": 3110,
      "stunning": 3111,
      "london": 3112,
      "lovely": 3113,
      "apo": 3114,
      "award": 3115,
      "wow": 3116,
      "thrown": 3117,
      "enced": 3118,
      "titles": 3119,
      "mic": 3120,
      "chur": 3121,
      "dev": 3122,
      "feat": 3123,
      "cinematic": 3124,
      "vidu": 3125,
      "christmas": 3126,
      "individu": 3127,
      "eper": 3128,
      "giant": 3129,
      "influ": 3130,
      "und": 3131,
      "prop": 3132,
      "ades": 3133,
      "managed": 3134,
      "mental": 3135,
      "speaking": 3136,
      "stan": 3137,
      "zo": 3138,
      "bits": 3139,
      "trick": 3140,
      "jeff": 3141,
      "civil": 3142,
      "boyfriend": 3143,
      "position": 3144,
      "jun": 3145,
      "planet": 3146,
      "impression": 3147,
      "justice": 3148,
      "mut": 3149,
      "ires": 3150,
      "izes": 3151,
      "appropri": 3152,
      "tro": 3153,
      "commer": 3154,
      "east": 3155,
      "push": 3156,
      "onto": 3157,
      "terrific": 3158,
      "intended": 3159,
      "joan": 3160,
      "sli": 3161,
      "18": 3162,
      "theless": 3163,
      "professional": 3164,
      "plots": 3165,
      "ify": 3166,
      "photography": 3167,
      "thin": 3168,
      "ito": 3169,
      "wel": 3170,
      "costumes": 3171,
      "remains": 3172,
      "kin": 3173,
      "escap": 3174,
      "mult": 3175,
      "henry": 3176,
      "abor": 3177,
      "painful": 3178,
      "touching": 3179,
      "program": 3180,
      "fox": 3181,
      "independ": 3182,
      "protagon": 3183,
      "comfort": 3184,
      "emotions": 3185,
      "dom": 3186,
      "hea": 3187,
      "unbelievable": 3188,
      "student": 3189,
      "constantly": 3190,
      "orts": 3191,
      "double": 3192,
      "zombies": 3193,
      "details": 3194,
      "charming": 3195,
      "suppose": 3196,
      "naz": 3197,
      "crack": 3198,
      "serial": 3199,
      "moon": 3200,
      "univers": 3201,
      "jason": 3202,
      "syste": 3203,
      "wy": 3204,
      "anders": 3205,
      "ots": 3206,
      "charm": 3207,
      "fal": 3208,
      "held": 3209,
      "disappointing": 3210,
      "slowly": 3211,
      "gal": 3212,
      "tour": 3213,
      "devil": 3214,
      "11": 3215,
      "thes": 3216,
      "offer": 3217,
      "lover": 3218,
      "hosp": 3219,
      "ante": 3220,
      "hitchcock": 3221,
      "lish": 3222,
      "discus": 3223,
      "ief": 3224,
      "besides": 3225,
      "laughable": 3226,
      "thur": 3227,
      "ano": 3228,
      "surround": 3229,
      "scenery": 3230,
      "central": 3231,
      "mm": 3232,
      "arts": 3233,
      "seven": 3234,
      "los": 3235,
      "ston": 3236,
      "faces": 3237,
      "lived": 3238,
      "willing": 3239,
      "eth": 3240,
      "hoping": 3241,
      "puts": 3242,
      "narrative": 3243,
      "isa": 3244,
      "ado": 3245,
      "holes": 3246,
      "medio": 3247,
      ".....": 3248,
      "jects": 3249,
      "agent": 3250,
      "marriage": 3251,
      "stein": 3252,
      "brid": 3253,
      "ified": 3254,
      "wide": 3255,
      "viet": 3256,
      "absur": 3257,
      "subst": 3258,
      "christian": 3259,
      "virt": 3260,
      "priv": 3261,
      "?!": 3262,
      "fli": 3263,
      "outstanding": 3264,
      "fright": 3265,
      "drawn": 3266,
      "woods": 3267,
      "graphic": 3268,
      "pi": 3269,
      "trag": 3270,
      "pull": 3271,
      "games": 3272,
      "happening": 3273,
      "finding": 3274,
      "excuse": 3275,
      "equally": 3276,
      "eat": 3277,
      "jan": 3278,
      "americans": 3279,
      "collection": 3280,
      "quie": 3281,
      "captain": 3282,
      "station": 3283,
      "block": 3284,
      "tony": 3285,
      "rupt": 3286,
      "intense": 3287,
      "beth": 3288,
      "filming": 3289,
      "stands": 3290,
      "flicks": 3291,
      "qual": 3292,
      "contains": 3293,
      "attractive": 3294,
      "fing": 3295,
      "feelings": 3296,
      "gain": 3297,
      "ahead": 3298,
      "mine": 3299,
      "ledge": 3300,
      "mistake": 3301,
      "behavi": 3302,
      "expectations": 3303,
      "radio": 3304,
      "host": 3305,
      "clean": 3306,
      "resem": 3307,
      "40": 3308,
      "themes": 3309,
      "laughter": 3310,
      "mainly": 3311,
      "aspects": 3312,
      "ively": 3313,
      "opportunity": 3314,
      "va": 3315,
      "andon": 3316,
      "moun": 3317,
      "commercial": 3318,
      "inspir": 3319,
      "disgust": 3320,
      "folks": 3321,
      "decis": 3322,
      "adaptation": 3323,
      "distr": 3324,
      "heads": 3325,
      "cliches": 3326,
      "tired": 3327,
      "addition": 3328,
      "victims": 3329,
      "canad": 3330,
      "actresses": 3331,
      "dread": 3332,
      "fish": 3333,
      "thir": 3334,
      "arm": 3335,
      "leader": 3336,
      "placed": 3337,
      "resc": 3338,
      "command": 3339,
      "lights": 3340,
      "suic": 3341,
      "contem": 3342,
      "porn": 3343,
      "rout": 3344,
      "disappointment": 3345,
      "12": 3346,
      "eight": 3347,
      "bol": 3348,
      "span": 3349,
      "forever": 3350,
      "fascinating": 3351,
      "difference": 3352,
      "opera": 3353,
      "card": 3354,
      "oli": 3355,
      "safe": 3356,
      "heroes": 3357,
      "content": 3358,
      "judge": 3359,
      "bright": 3360,
      "paid": 3361,
      "weap": 3362,
      "hurt": 3363,
      "zen": 3364,
      "lighting": 3365,
      "stuck": 3366,
      "breaking": 3367,
      "hospital": 3368,
      "absurd": 3369,
      "ison": 3370,
      "surely": 3371,
      "tt": 3372,
      "process": 3373,
      "amed": 3374,
      "breath": 3375,
      "matic": 3376,
      "fif": 3377,
      "raise": 3378,
      "image": 3379,
      "confused": 3380,
      "origin": 3381,
      "vy": 3382,
      "falling": 3383,
      "asts": 3384,
      "sea": 3385,
      "impressed": 3386,
      "dick": 3387,
      "lacks": 3388,
      "nons": 3389,
      "hide": 3390,
      "itude": 3391,
      "boat": 3392,
      "brown": 3393,
      "critics": 3394,
      "hotel": 3395,
      "industry": 3396,
      "cele": 3397,
      "mike": 3398,
      "confusing": 3399,
      "kevin": 3400,
      "tran": 3401,
      "dated": 3402,
      "gem": 3403,
      "norm": 3404,
      "relationships": 3405,
      "nel": 3406,
      "adam": 3407,
      "creature": 3408,
      "teacher": 3409,
      "ugly": 3410,
      "magn": 3411,
      "aries": 3412,
      "moore": 3413,
      "adds": 3414,
      "slap": 3415,
      "cab": 3416,
      "lau": 3417,
      "states": 3418,
      "students": 3419,
      "seemingly": 3420,
      "mob": 3421,
      "include": 3422,
      "nomin": 3423,
      "anne": 3424,
      "struct": 3425,
      "dig": 3426,
      "dreams": 3427,
      "horse": 3428,
      "putting": 3429,
      "compan": 3430,
      "supposedly": 3431,
      "negative": 3432,
      "nasty": 3433,
      "laughed": 3434,
      "remote": 3435,
      "fellow": 3436,
      "aware": 3437,
      "sight": 3438,
      "cgi": 3439,
      "mont": 3440,
      "skin": 3441,
      "hack": 3442,
      "wars": 3443,
      "steven": 3444,
      "disaster": 3445,
      "multi": 3446,
      "food": 3447,
      "warm": 3448,
      "emplo": 3449,
      "kidn": 3450,
      "summer": 3451,
      "damn": 3452,
      "fied": 3453,
      "spectac": 3454,
      "uk": 3455,
      "superi": 3456,
      "illa": 3457,
      "provid": 3458,
      "lord": 3459,
      "igno": 3460,
      "forgotten": 3461,
      "spec": 3462,
      "birth": 3463,
      "gon": 3464,
      "explained": 3465,
      "location": 3466,
      "christop": 3467,
      "argu": 3468,
      "ties": 3469,
      "possess": 3470,
      "information": 3471,
      "model": 3472,
      "unknown": 3473,
      "intention": 3474,
      "allowed": 3475,
      "window": 3476,
      "vert": 3477,
      "lessly": 3478,
      "nis": 3479,
      "progress": 3480,
      "grat": 3481,
      "uts": 3482,
      "pot": 3483,
      "shouldn": 3484,
      "occasion": 3485,
      "becoming": 3486,
      "share": 3487,
      "dubb": 3488,
      "traged": 3489,
      "delivers": 3490,
      "irrit": 3491,
      "lying": 3492,
      "murders": 3493,
      "rush": 3494,
      "ases": 3495,
      "president": 3496,
      "mouth": 3497,
      "drop": 3498,
      "craw": 3499,
      "bum": 3500,
      "mild": 3501,
      "aly": 3502,
      "uel": 3503,
      "austral": 3504,
      "accurate": 3505,
      "christopher": 3506,
      "bank": 3507,
      "hasn": 3508,
      "funniest": 3509,
      "blind": 3510,
      "nightm": 3511,
      "compelling": 3512,
      "pup": 3513,
      "anymore": 3514,
      "offers": 3515,
      "flaws": 3516,
      "chinese": 3517,
      "sac": 3518,
      "merely": 3519,
      "vides": 3520,
      "celebr": 3521,
      "cars": 3522,
      "hab": 3523,
      "artist": 3524,
      "lif": 3525,
      "sour": 3526,
      "twice": 3527,
      "creative": 3528,
      "gorgeous": 3529,
      "angry": 3530,
      "machine": 3531,
      "adults": 3532,
      "soft": 3533,
      "nes": 3534,
      "thats": 3535,
      "length": 3536,
      "wondering": 3537,
      "williams": 3538,
      "loving": 3539,
      "rot": 3540,
      "estab": 3541,
      "pleasant": 3542,
      "russian": 3543,
      "apartment": 3544,
      "fection": 3545,
      "prefer": 3546,
      "gin": 3547,
      "hat": 3548,
      "personality": 3549,
      "helps": 3550,
      "reminded": 3551,
      "conce": 3552,
      "dirty": 3553,
      "hay": 3554,
      "rose": 3555,
      "dut": 3556,
      "neighbor": 3557,
      "jes": 3558,
      "seg": 3559,
      "tragic": 3560,
      "comparis": 3561,
      "mediocre": 3562,
      "fights": 3563,
      "oud": 3564,
      "element": 3565,
      "convers": 3566,
      "impact": 3567,
      "shocking": 3568,
      "system": 3569,
      "candy": 3570,
      "explan": 3571,
      "rented": 3572,
      "rul": 3573,
      "area": 3574,
      "therefore": 3575,
      "proves": 3576,
      "loss": 3577,
      "domin": 3578,
      "frust": 3579,
      "jam": 3580,
      "ups": 3581,
      "oughly": 3582,
      "bloody": 3583,
      "lind": 3584,
      "iev": 3585,
      "bow": 3586,
      "tight": 3587,
      "forgettable": 3588,
      "agger": 3589,
      "proved": 3590,
      "ior": 3591,
      "ister": 3592,
      "teenage": 3593,
      "trailer": 3594,
      "howard": 3595,
      "provides": 3596,
      "punch": 3597,
      "powers": 3598,
      "wearing": 3599,
      "chill": 3600,
      "epic": 3601,
      "gene": 3602,
      "formula": 3603,
      "commentary": 3604,
      "surprising": 3605,
      "followed": 3606,
      "stew": 3607,
      "pin": 3608,
      "seconds": 3609,
      "cops": 3610,
      "gs": 3611,
      "agers": 3612,
      "serv": 3613,
      "superior": 3614,
      "realism": 3615,
      "lose": 3616,
      "ech": 3617,
      "burn": 3618,
      "imagination": 3619,
      "latter": 3620,
      "scientist": 3621,
      "asks": 3622,
      "itions": 3623,
      "achie": 3624,
      "connection": 3625,
      "ona": 3626,
      "partner": 3627,
      "calls": 3628,
      "understanding": 3629,
      "numbers": 3630,
      "drugs": 3631,
      "accom": 3632,
      "auto": 3633,
      "oppos": 3634,
      "depart": 3635,
      "martial": 3636,
      "dying": 3637,
      "kr": 3638,
      "provide": 3639,
      "returns": 3640,
      "mum": 3641,
      "ency": 3642,
      "stat": 3643,
      "wooden": 3644,
      "snow": 3645,
      "uous": 3646,
      "continue": 3647,
      "slo": 3648,
      "moved": 3649,
      "deserved": 3650,
      "afraid": 3651,
      "aps": 3652,
      "vac": 3653,
      "cali": 3654,
      "responsible": 3655,
      "davis": 3656,
      "pers": 3657,
      "convent": 3658,
      "cow": 3659,
      "issue": 3660,
      "demand": 3661,
      "boo": 3662,
      "asked": 3663,
      "educ": 3664,
      "winning": 3665,
      "independent": 3666,
      "comedic": 3667,
      "nal": 3668,
      "achieve": 3669,
      "youth": 3670,
      "flying": 3671,
      "ww": 3672,
      "conflict": 3673,
      "wee": 3674,
      "fold": 3675,
      "speed": 3676,
      "cup": 3677,
      "finished": 3678,
      "standards": 3679,
      "presents": 3680,
      "60": 3681,
      "religious": 3682,
      ".,": 3683,
      "stren": 3684,
      "picked": 3685,
      "pleasure": 3686,
      "animal": 3687,
      "kelly": 3688,
      "warning": 3689,
      "syn": 3690,
      "jackson": 3691,
      "intelligence": 3692,
      "favourite": 3693,
      "tragedy": 3694,
      "bian": 3695,
      "scare": 3696,
      "suicide": 3697,
      "bag": 3698,
      "vs": 3699,
      "cook": 3700,
      "twenty": 3701,
      "north": 3702,
      "blame": 3703,
      "zero": 3704,
      "craft": 3705,
      "bio": 3706,
      "aa": 3707,
      "eddie": 3708,
      "helped": 3709,
      "ira": 3710,
      "introduced": 3711,
      "intriguing": 3712,
      "cable": 3713,
      "itional": 3714,
      "thomas": 3715,
      "wanting": 3716,
      "soever": 3717,
      "gling": 3718,
      "aliens": 3719,
      "harris": 3720,
      "unusual": 3721,
      "rubb": 3722,
      "rarely": 3723,
      "mu": 3724,
      "accor": 3725,
      "heal": 3726,
      "relative": 3727,
      "limited": 3728,
      "repeated": 3729,
      "whatsoever": 3730,
      "soldier": 3731,
      "lucky": 3732,
      "describe": 3733,
      "py": 3734,
      "fill": 3735,
      "rend": 3736,
      "gary": 3737,
      "physical": 3738,
      "realized": 3739,
      "childhood": 3740,
      "motiv": 3741,
      "bour": 3742,
      "buff": 3743,
      "memory": 3744,
      "cis": 3745,
      "hs": 3746,
      "ining": 3747,
      "acade": 3748,
      "unexpected": 3749,
      "hidden": 3750,
      "pilot": 3751,
      "cate": 3752,
      "pir": 3753,
      "belong": 3754,
      "clothes": 3755,
      "dred": 3756,
      "oso": 3757,
      "hated": 3758,
      "alan": 3759,
      "transform": 3760,
      "lewis": 3761,
      "beach": 3762,
      "perform": 3763,
      "pit": 3764,
      "awk": 3765,
      "streng": 3766,
      "tape": 3767,
      "cused": 3768,
      "bland": 3769,
      "sucks": 3770,
      "jac": 3771,
      "separ": 3772,
      "azy": 3773,
      "reck": 3774,
      "appropriate": 3775,
      "nan": 3776,
      "stink": 3777,
      "sympath": 3778,
      "torture": 3779,
      "arthur": 3780,
      "manage": 3781,
      "tears": 3782,
      "prep": 3783,
      "ption": 3784,
      "price": 3785,
      "jerry": 3786,
      "brutal": 3787,
      "ifer": 3788,
      "goof": 3789,
      "chain": 3790,
      "prince": 3791,
      "tex": 3792,
      "holds": 3793,
      "remarkable": 3794,
      "paper": 3795,
      "fits": 3796,
      "wat": 3797,
      "angle": 3798,
      "fab": 3799,
      "began": 3800,
      "shel": 3801,
      "rape": 3802,
      "techno": 3803,
      "gangster": 3804,
      "fare": 3805,
      "resol": 3806,
      "broken": 3807,
      "kins": 3808,
      "yer": 3809,
      "knock": 3810,
      "ai": 3811,
      "hic": 3812,
      "erous": 3813,
      "ski": 3814,
      "mate": 3815,
      "listen": 3816,
      "dimens": 3817,
      "bound": 3818,
      "compare": 3819,
      "research": 3820,
      "batman": 3821,
      "guns": 3822,
      "80s": 3823,
      "brad": 3824,
      "blon": 3825,
      "colum": 3826,
      "magnific": 3827,
      "spective": 3828,
      "asing": 3829,
      "ils": 3830,
      "paced": 3831,
      "anywhere": 3832,
      "redeeming": 3833,
      "court": 3834,
      "player": 3835,
      "ryan": 3836,
      "buck": 3837,
      "generation": 3838,
      "filmmaker": 3839,
      "scious": 3840,
      "owner": 3841,
      "barbar": 3842,
      "capable": 3843,
      "thous": 3844,
      "vey": 3845,
      "struggle": 3846,
      "church": 3847,
      "flesh": 3848,
      "animals": 3849,
      "dangerous": 3850,
      "nia": 3851,
      "frame": 3852,
      "knowledge": 3853,
      "constant": 3854,
      "energy": 3855,
      "sport": 3856,
      "jr": 3857,
      "ators": 3858,
      "ners": 3859,
      "creating": 3860,
      "foreign": 3861,
      "shak": 3862,
      "cere": 3863,
      "glas": 3864,
      "cruel": 3865,
      "thousand": 3866,
      "forces": 3867,
      "brook": 3868,
      "smile": 3869,
      "ape": 3870,
      "artistic": 3871,
      "oted": 3872,
      "debut": 3873,
      "includes": 3874,
      "stream": 3875,
      "aire": 3876,
      "hundred": 3877,
      "served": 3878,
      "awkward": 3879,
      "lone": 3880,
      "singer": 3881,
      "theatre": 3882,
      "nicely": 3883,
      "techni": 3884,
      "bun": 3885,
      "brand": 3886,
      "officer": 3887,
      "glass": 3888,
      "mixed": 3889,
      "noticed": 3890,
      "complic": 3891,
      "extr": 3892,
      "ppy": 3893,
      "peace": 3894,
      "villains": 3895,
      "lovers": 3896,
      "repor": 3897,
      "cris": 3898,
      "floor": 3899,
      "zed": 3900,
      "accompl": 3901,
      "anybody": 3902,
      "aud": 3903,
      "iest": 3904,
      "below": 3905,
      "insane": 3906,
      "mitch": 3907,
      "bath": 3908,
      "mrs": 3909,
      "quiet": 3910,
      "ws": 3911,
      "drac": 3912,
      "stephen": 3913,
      "strain": 3914,
      "uncle": 3915,
      "deserve": 3916,
      "desperate": 3917,
      "mountain": 3918,
      "record": 3919,
      "itty": 3920,
      "lion": 3921,
      "community": 3922,
      "buster": 3923,
      "current": 3924,
      "months": 3925,
      "players": 3926,
      "dennis": 3927,
      "deeply": 3928,
      "explanation": 3929,
      "incident": 3930,
      "wayne": 3931,
      "driving": 3932,
      "shop": 3933,
      "pacing": 3934,
      "assist": 3935,
      "wanna": 3936,
      "scared": 3937,
      "johnny": 3938,
      "atter": 3939,
      "somebody": 3940,
      "vote": 3941,
      "represent": 3942,
      "shir": 3943,
      "humanity": 3944,
      "fle": 3945,
      "vul": 3946,
      "bog": 3947,
      "horri": 3948,
      "streets": 3949,
      "entious": 3950,
      "ousy": 3951,
      "keeping": 3952,
      "skip": 3953,
      "thoroughly": 3954,
      "hits": 3955,
      "ider": 3956,
      "grave": 3957,
      "bodies": 3958,
      "stit": 3959,
      "philoso": 3960,
      "satisfying": 3961,
      "sole": 3962,
      "jose": 3963,
      "monsters": 3964,
      "travel": 3965,
      "itous": 3966,
      ".'": 3967,
      "ote": 3968,
      "lacking": 3969,
      "witty": 3970,
      "nin": 3971,
      "atro": 3972,
      "organ": 3973,
      "stewart": 3974,
      "saving": 3975,
      "engaging": 3976,
      "village": 3977,
      "vehic": 3978,
      "soap": 3979,
      "cash": 3980,
      "incre": 3981,
      "asure": 3982,
      "lust": 3983,
      "forts": 3984,
      "unnecessary": 3985,
      "sympathetic": 3986,
      "experiment": 3987,
      "veter": 3988,
      "explic": 3989,
      "ivity": 3990,
      "signific": 3991,
      "!).": 3992,
      "apparent": 3993,
      "pretentious": 3994,
      "locations": 3995,
      "murdered": 3996,
      "aine": 3997,
      "miser": 3998,
      "courage": 3999,
      "cuts": 4000,
      "survive": 4001,
      "page": 4002,
      "dry": 4003,
      "donald": 4004,
      "frequ": 4005,
      "naturally": 4006,
      "parody": 4007,
      "humans": 4008,
      "70s": 4009,
      "nonsense": 4010,
      "seat": 4011,
      "normally": 4012,
      "drunk": 4013,
      "ander": 4014,
      "----": 4015,
      "england": 4016,
      "fate": 4017,
      "greg": 4018,
      "protect": 4019,
      "iled": 4020,
      "priest": 4021,
      "eating": 4022,
      "hes": 4023,
      "sean": 4024,
      "douglas": 4025,
      "text": 4026,
      "urban": 4027,
      "interpret": 4028,
      "gam": 4029,
      "nine": 4030,
      "brian": 4031,
      "captured": 4032,
      "weight": 4033,
      "wonderfully": 4034,
      "ville": 4035,
      "wing": 4036,
      "associ": 4037,
      "starting": 4038,
      "rubbish": 4039,
      "contrast": 4040,
      "comparison": 4041,
      "ican": 4042,
      "barry": 4043,
      "reminds": 4044,
      "revolution": 4045,
      "whil": 4046,
      "fault": 4047,
      "abs": 4048,
      "charis": 4049,
      "mature": 4050,
      "desert": 4051,
      "learned": 4052,
      "concerned": 4053,
      "dracula": 4054,
      "edited": 4055,
      "invent": 4056,
      "memories": 4057,
      "cise": 4058,
      "proceed": 4059,
      "freed": 4060,
      "serve": 4061,
      "vhs": 4062,
      "gard": 4063,
      "stret": 4064,
      "rober": 4065,
      "conscious": 4066,
      "hunter": 4067,
      "ilo": 4068,
      "marry": 4069,
      "technical": 4070,
      "bigger": 4071,
      "meanwhile": 4072,
      "leon": 4073,
      "affect": 4074,
      "mini": 4075,
      "growing": 4076,
      "discovered": 4077,
      "spanish": 4078,
      "liber": 4079,
      "empty": 4080,
      "ario": 4081,
      "thern": 4082,
      "corpor": 4083,
      "symbol": 4084,
      "dimensional": 4085,
      "sheriff": 4086,
      "morning": 4087,
      "passed": 4088,
      "circum": 4089,
      "behavior": 4090,
      "cel": 4091,
      "product": 4092,
      "plaus": 4093,
      "anthony": 4094,
      "stor": 4095,
      "numerous": 4096,
      "visit": 4097,
      "ena": 4098,
      "thered": 4099,
      "efforts": 4100,
      "lake": 4101,
      "whilst": 4102,
      "cha": 4103,
      "meeting": 4104,
      "assass": 4105,
      "regular": 4106,
      "originally": 4107,
      "aret": 4108,
      "treated": 4109,
      "altern": 4110,
      "european": 4111,
      "opposite": 4112,
      "blonde": 4113,
      "tan": 4114,
      "tay": 4115,
      "jenn": 4116,
      "weal": 4117,
      "media": 4118,
      "wound": 4119,
      "icious": 4120,
      "prostit": 4121,
      "wear": 4122,
      "coher": 4123,
      "lied": 4124,
      "hole": 4125,
      "teenagers": 4126,
      "unders": 4127,
      "object": 4128,
      "skills": 4129,
      "eric": 4130,
      "encounter": 4131,
      "cant": 4132,
      "quir": 4133,
      "gags": 4134,
      "erotic": 4135,
      "revealed": 4136,
      "context": 4137,
      "frankly": 4138,
      "dean": 4139,
      "seless": 4140,
      "included": 4141,
      "according": 4142,
      "sentiment": 4143,
      "nation": 4144,
      "service": 4145,
      "promise": 4146,
      "featuring": 4147,
      "academy": 4148,
      "jennifer": 4149,
      "gil": 4150,
      "capture": 4151,
      "comfortable": 4152,
      "nar": 4153,
      "whenever": 4154,
      "results": 4155,
      "united": 4156,
      "instance": 4157,
      "golden": 4158,
      "ultimate": 4159,
      "shakespe": 4160,
      "abandon": 4161,
      "patrick": 4162,
      "classics": 4163,
      "spoof": 4164,
      "sides": 4165,
      "glor": 4166,
      "references": 4167,
      "lum": 4168,
      "shallow": 4169,
      "emer": 4170,
      "satur": 4171,
      "icate": 4172,
      "marvel": 4173,
      "dol": 4174,
      "toward": 4175,
      "hadn": 4176,
      "grapher": 4177,
      "hopes": 4178,
      "intellect": 4179,
      "occasionally": 4180,
      "gross": 4181,
      "danny": 4182,
      "heroine": 4183,
      "dressed": 4184,
      "nn": 4185,
      "constru": 4186,
      "matt": 4187,
      "dealing": 4188,
      "gif": 4189,
      "iron": 4190,
      "ruth": 4191,
      "contribut": 4192,
      "tu": 4193,
      "alleng": 4194,
      "guard": 4195,
      "minim": 4196,
      "related": 4197,
      "inct": 4198,
      "speech": 4199,
      "target": 4200,
      "competent": 4201,
      "fame": 4202,
      "scr": 4203,
      "private": 4204,
      "overly": 4205,
      "nich": 4206,
      "opens": 4207,
      "identity": 4208,
      "protagonist": 4209,
      "circumst": 4210,
      "deb": 4211,
      "heck": 4212,
      "sheer": 4213,
      "finale": 4214,
      "friendship": 4215,
      "bringing": 4216,
      "pless": 4217,
      "desire": 4218,
      "chore": 4219,
      "azz": 4220,
      "psychological": 4221,
      "sett": 4222,
      "relate": 4223,
      "16": 4224,
      "........": 4225,
      "heaven": 4226,
      "iling": 4227,
      "udes": 4228,
      "insight": 4229,
      "julie": 4230,
      "refresh": 4231,
      "humorous": 4232,
      "contrived": 4233,
      "cass": 4234,
      "nur": 4235,
      "corn": 4236,
      "send": 4237,
      "determin": 4238,
      "deals": 4239,
      "tribut": 4240,
      "stated": 4241,
      "advice": 4242,
      "cies": 4243,
      "rise": 4244,
      "challeng": 4245,
      "study": 4246,
      "chair": 4247,
      "nold": 4248,
      "higher": 4249,
      "stereotypes": 4250,
      "wedding": 4251,
      "robb": 4252,
      "feet": 4253,
      "osex": 4254,
      "clim": 4255,
      "individual": 4256,
      "cameo": 4257,
      "envir": 4258,
      "beast": 4259,
      "kir": 4260,
      "range": 4261,
      "talents": 4262,
      "ette": 4263,
      "???": 4264,
      "essentially": 4265,
      "fet": 4266,
      "crappy": 4267,
      "kinda": 4268,
      "terribly": 4269,
      "grown": 4270,
      "rical": 4271,
      "tack": 4272,
      "elle": 4273,
      "ipul": 4274,
      "center": 4275,
      "saur": 4276,
      "breaks": 4277,
      "pulled": 4278,
      "sco": 4279,
      "osexual": 4280,
      "print": 4281,
      "buddy": 4282,
      "driver": 4283,
      "gentle": 4284,
      "evidence": 4285,
      "asian": 4286,
      "ambit": 4287,
      "plant": 4288,
      "saved": 4289,
      "dogs": 4290,
      "magnificent": 4291,
      "river": 4292,
      "prov": 4293,
      "facts": 4294,
      "kong": 4295,
      "native": 4296,
      "format": 4297,
      "lynch": 4298,
      "rant": 4299,
      "enemy": 4300,
      "aton": 4301,
      "admir": 4302,
      "crowd": 4303,
      "rival": 4304,
      "international": 4305,
      "finest": 4306,
      "hearted": 4307,
      "attitude": 4308,
      "regret": 4309,
      "anime": 4310,
      "atory": 4311,
      "nightmare": 4312,
      "princi": 4313,
      "section": 4314,
      "rence": 4315,
      "levels": 4316,
      "raised": 4317,
      "received": 4318,
      "unrealistic": 4319,
      "ques": 4320,
      "taylor": 4321,
      "environ": 4322,
      "statement": 4323,
      "massac": 4324,
      "dreadful": 4325,
      "gonna": 4326,
      "sequels": 4327,
      "refle": 4328,
      "spectacular": 4329,
      "jay": 4330,
      "manipul": 4331,
      "ella": 4332,
      "sharp": 4333,
      "bid": 4334,
      "junk": 4335,
      "murphy": 4336,
      "promising": 4337,
      "unfunny": 4338,
      "remembered": 4339,
      "authen": 4340,
      "reviewers": 4341,
      "flashbacks": 4342,
      "perspective": 4343,
      "castle": 4344,
      "strip": 4345,
      "market": 4346,
      "holmes": 4347,
      "freedom": 4348,
      "ato": 4349,
      "ctr": 4350,
      "exploitation": 4351,
      "decade": 4352,
      "relief": 4353,
      "shakespeare": 4354,
      "chief": 4355,
      "iac": 4356,
      "preh": 4357,
      "cares": 4358,
      "document": 4359,
      "rescue": 4360,
      "rie": 4361,
      "evol": 4362,
      "spin": 4363,
      "rolling": 4364,
      "suffering": 4365,
      "demonstr": 4366,
      "discovers": 4367,
      "sche": 4368,
      "ination": 4369,
      "scenario": 4370,
      "satire": 4371,
      "texas": 4372,
      "hip": 4373,
      "iety": 4374,
      "decision": 4375,
      "failure": 4376,
      "france": 4377,
      "teens": 4378,
      ");": 4379,
      "unfold": 4380,
      "covered": 4381,
      "marks": 4382,
      "driven": 4383,
      "reaction": 4384,
      "union": 4385,
      "ender": 4386,
      "contro": 4387,
      "till": 4388,
      "rough": 4389,
      "virgin": 4390,
      "metal": 4391,
      "tho": 4392,
      "unable": 4393,
      "experienced": 4394,
      "site": 4395,
      "ende": 4396,
      "doom": 4397,
      "lesbian": 4398,
      "rifying": 4399,
      "genuinely": 4400,
      "famil": 4401,
      "continues": 4402,
      "irritating": 4403,
      "rules": 4404,
      "daniel": 4405,
      "sword": 4406,
      "involves": 4407,
      "icts": 4408,
      "cliched": 4409,
      "logic": 4410,
      "gig": 4411,
      "rings": 4412,
      "wick": 4413,
      "professor": 4414,
      "sno": 4415,
      "sucked": 4416,
      "canni": 4417,
      "handed": 4418,
      "naive": 4419,
      "forest": 4420,
      "african": 4421,
      "sedu": 4422,
      "link": 4423,
      "craf": 4424,
      "tedious": 4425,
      "walks": 4426,
      "satan": 4427,
      "anderson": 4428,
      "loses": 4429,
      "xious": 4430,
      "trade": 4431,
      "ache": 4432,
      "switch": 4433,
      "louis": 4434,
      "executed": 4435,
      "cit": 4436,
      "function": 4437,
      "proud": 4438,
      "depressing": 4439,
      "built": 4440,
      "visuals": 4441,
      "francis": 4442,
      "25": 4443,
      "friday": 4444,
      "maint": 4445,
      "cia": 4446,
      "allows": 4447,
      "ladies": 4448,
      "treatment": 4449,
      "apes": 4450,
      "apping": 4451,
      "fed": 4452,
      "authentic": 4453,
      "rat": 4454,
      "arms": 4455,
      "guil": 4456,
      "rental": 4457,
      "brilliantly": 4458,
      "ara": 4459,
      "eer": 4460,
      "kim": 4461,
      "sie": 4462,
      "pregn": 4463,
      "graphed": 4464,
      "hyster": 4465,
      "delivered": 4466,
      "described": 4467,
      "robot": 4468,
      "nevertheless": 4469,
      "propag": 4470,
      "agre": 4471,
      "dish": 4472,
      "sake": 4473,
      "corrupt": 4474,
      "blown": 4475,
      "grew": 4476,
      "cand": 4477,
      "rod": 4478,
      "strict": 4479,
      "grim": 4480,
      "handsome": 4481,
      "figh": 4482,
      "pity": 4483,
      "teenager": 4484,
      "recall": 4485,
      "stum": 4486,
      "produce": 4487,
      "existence": 4488,
      "jaw": 4489,
      "ishing": 4490,
      "underrated": 4491,
      "majority": 4492,
      "sant": 4493,
      "uitous": 4494,
      "lesson": 4495,
      "glim": 4496,
      "advert": 4497,
      "eliza": 4498,
      "combination": 4499,
      "forth": 4500,
      "wilder": 4501,
      "screaming": 4502,
      "mexican": 4503,
      "ching": 4504,
      "creatures": 4505,
      "surreal": 4506,
      "porary": 4507,
      "strength": 4508,
      "fon": 4509,
      "ulous": 4510,
      "neck": 4511,
      "appealing": 4512,
      "cket": 4513,
      "theaters": 4514,
      "talks": 4515,
      "ama": 4516,
      "ays": 4517,
      "creates": 4518,
      "gordon": 4519,
      "dino": 4520,
      "rous": 4521,
      "cutting": 4522,
      "russell": 4523,
      "roger": 4524,
      "inept": 4525,
      "nazi": 4526,
      "hart": 4527,
      "thoughts": 4528,
      "choose": 4529,
      "tood": 4530,
      "portrays": 4531,
      "quar": 4532,
      "aka": 4533,
      "tax": 4534,
      "sisters": 4535,
      "cartoons": 4536,
      "haunting": 4537,
      "gratuitous": 4538,
      "fro": 4539,
      "rep": 4540,
      "asking": 4541,
      "views": 4542,
      "anci": 4543,
      "hopefully": 4544,
      "weeks": 4545,
      "barbara": 4546,
      "cooper": 4547,
      "curious": 4548,
      "bay": 4549,
      "cil": 4550,
      "ease": 4551,
      "killers": 4552,
      "ec": 4553,
      "oz": 4554,
      "cious": 4555,
      "ration": 4556,
      "supp": 4557,
      "emotionally": 4558,
      "slapstick": 4559,
      "offensive": 4560,
      "phan": 4561,
      "turkey": 4562,
      "roberts": 4563,
      "ita": 4564,
      "viewed": 4565,
      "shocked": 4566,
      "suffer": 4567,
      "sir": 4568,
      "scale": 4569,
      "truck": 4570,
      "dollars": 4571,
      "kate": 4572,
      "angers": 4573,
      "lab": 4574,
      "woody": 4575,
      "universal": 4576,
      "horribly": 4577,
      "understood": 4578,
      "circumstances": 4579,
      "rebel": 4580,
      "secur": 4581,
      "ador": 4582,
      "endless": 4583,
      "sons": 4584,
      "inte": 4585,
      "account": 4586,
      "electr": 4587,
      "washing": 4588,
      "families": 4589,
      "dd": 4590,
      "skill": 4591,
      "commit": 4592,
      "roman": 4593,
      "claims": 4594,
      "crawford": 4595,
      "pian": 4596,
      "spell": 4597,
      "corny": 4598,
      "choreo": 4599,
      "visually": 4600,
      "provided": 4601,
      "expression": 4602,
      "nichol": 4603,
      "factor": 4604,
      "transl": 4605,
      "14": 4606,
      "kore": 4607,
      "serves": 4608,
      "ike": 4609,
      "jackie": 4610,
      "subtitles": 4611,
      "adding": 4612,
      "mask": 4613,
      "relevant": 4614,
      "theatrical": 4615,
      "virtually": 4616,
      "17": 4617,
      "jess": 4618,
      "reput": 4619,
      "revel": 4620,
      "ini": 4621,
      "itable": 4622,
      "hearing": 4623,
      "ignor": 4624,
      "raw": 4625,
      "assume": 4626,
      "shut": 4627,
      "source": 4628,
      "technology": 4629,
      "usa": 4630,
      "winner": 4631,
      "massacre": 4632,
      "haw": 4633,
      "embarrassing": 4634,
      "disgusting": 4635,
      "citiz": 4636,
      "---": 4637,
      "trek": 4638,
      "aur": 4639,
      "pool": 4640,
      "chaplin": 4641,
      "blah": 4642,
      "maintain": 4643,
      "jail": 4644,
      "champ": 4645,
      "excite": 4646,
      "vehicle": 4647,
      "susan": 4648,
      "surface": 4649,
      "bitter": 4650,
      "jar": 4651,
      "werewolf": 4652,
      "meth": 4653,
      "achiev": 4654,
      "monkey": 4655,
      "survivor": 4656,
      "hunt": 4657,
      "alle": 4658,
      "holding": 4659,
      "cath": 4660,
      "ping": 4661,
      "angles": 4662,
      "believes": 4663,
      "bak": 4664,
      "phis": 4665,
      "chant": 4666,
      "losing": 4667,
      "anton": 4668,
      "hh": 4669,
      "steals": 4670,
      "painfully": 4671,
      "dinner": 4672,
      "inev": 4673,
      "usive": 4674,
      "harsh": 4675,
      "cyn": 4676,
      "football": 4677,
      "critical": 4678,
      "tiny": 4679,
      "guar": 4680,
      "twisted": 4681,
      "largely": 4682,
      "\"),": 4683,
      "alco": 4684,
      "fee": 4685,
      "fix": 4686,
      "hint": 4687,
      "jum": 4688,
      "highlight": 4689,
      "faced": 4690,
      "hammer": 4691,
      "dubbed": 4692,
      "ancient": 4693,
      "matters": 4694,
      "amor": 4695,
      "plor": 4696,
      "evening": 4697,
      "enstein": 4698,
      "homosexual": 4699,
      "maid": 4700,
      "reviewer": 4701,
      "\").": 4702,
      "excited": 4703,
      "colour": 4704,
      "silver": 4705,
      "network": 4706,
      "poster": 4707,
      "destru": 4708,
      "amateurish": 4709,
      "mort": 4710,
      "som": 4711,
      "lem": 4712,
      "farm": 4713,
      "costs": 4714,
      "hil": 4715,
      "kung": 4716,
      "zard": 4717,
      "het": 4718,
      "coach": 4719,
      "plans": 4720,
      "hallo": 4721,
      "califor": 4722,
      "liners": 4723,
      "fict": 4724,
      "mock": 4725,
      "honor": 4726,
      "delightful": 4727,
      "propaganda": 4728,
      "itz": 4729,
      "simon": 4730,
      "strongly": 4731,
      "adventures": 4732,
      "plausible": 4733,
      "prior": 4734,
      "execution": 4735,
      "vance": 4736,
      "versions": 4737,
      "traditional": 4738,
      "__": 4739,
      "nest": 4740,
      "edward": 4741,
      "keaton": 4742,
      "dust": 4743,
      "lousy": 4744,
      "arrest": 4745,
      "shark": 4746,
      "jimmy": 4747,
      "qualities": 4748,
      "vincent": 4749,
      "supernatural": 4750,
      "legal": 4751,
      "haunted": 4752,
      "ibility": 4753,
      "jungle": 4754,
      "veteran": 4755,
      "alcohol": 4756,
      "cous": 4757,
      "descript": 4758,
      "lane": 4759,
      "sions": 4760,
      "inner": 4761,
      "dynam": 4762,
      "yle": 4763,
      "stopped": 4764,
      "miles": 4765,
      "intentionally": 4766,
      "makeup": 4767,
      "caused": 4768,
      "halloween": 4769,
      "wreck": 4770,
      "aint": 4771,
      "sports": 4772,
      "involve": 4773,
      "figured": 4774,
      "practically": 4775,
      "saturday": 4776,
      "ez": 4777,
      "carol": 4778,
      "idiot": 4779,
      "ole": 4780,
      "necessarily": 4781,
      "prime": 4782,
      "provok": 4783,
      "elli": 4784,
      "spects": 4785,
      "praise": 4786,
      "wilson": 4787,
      "spre": 4788,
      "decl": 4789,
      "lower": 4790,
      "dragon": 4791,
      "directly": 4792,
      "extras": 4793,
      "bone": 4794,
      "mous": 4795,
      "chi": 4796,
      "display": 4797,
      "visible": 4798,
      "changing": 4799,
      "coherent": 4800,
      "method": 4801,
      "rab": 4802,
      "routine": 4803,
      "refreshing": 4804,
      "benef": 4805,
      "mirror": 4806,
      "segment": 4807,
      "report": 4808,
      "ication": 4809,
      "multiple": 4810,
      "nut": 4811,
      "tong": 4812,
      "vable": 4813,
      "unfortunate": 4814,
      "pursu": 4815,
      "trapped": 4816,
      "learns": 4817,
      "false": 4818,
      "):": 4819,
      "khan": 4820,
      "noon": 4821,
      "rage": 4822,
      "chosen": 4823,
      "obsc": 4824,
      "sensitive": 4825,
      "obsessed": 4826,
      "relatively": 4827,
      "pier": 4828,
      "lloy": 4829,
      "spends": 4830,
      "walked": 4831,
      "clue": 4832,
      "committed": 4833,
      "headed": 4834,
      "portraying": 4835,
      "brave": 4836,
      "insult": 4837,
      "joseph": 4838,
      "elizabeth": 4839,
      "security": 4840,
      "mend": 4841,
      "shine": 4842,
      "shall": 4843,
      "porno": 4844,
      "featured": 4845,
      "canadian": 4846,
      "tie": 4847,
      "rights": 4848,
      "speaks": 4849,
      "cring": 4850,
      "granted": 4851,
      "notch": 4852,
      "anged": 4853,
      "handled": 4854,
      "india": 4855,
      "australian": 4856,
      "excitement": 4857,
      "religion": 4858,
      "faithful": 4859,
      "preach": 4860,
      "ruined": 4861,
      "universe": 4862,
      "pic": 4863,
      "conversation": 4864,
      "puzz": 4865,
      "betray": 4866,
      "believed": 4867,
      "oul": 4868,
      "robo": 4869,
      "firm": 4870,
      "deaths": 4871,
      "imaginative": 4872,
      "welcome": 4873,
      "ued": 4874,
      "wrest": 4875,
      "alice": 4876,
      "voices": 4877,
      "variety": 4878,
      "substance": 4879,
      "reminis": 4880,
      "costu": 4881,
      "pted": 4882,
      "experiences": 4883,
      "deadly": 4884,
      "sorts": 4885,
      "jesus": 4886,
      "costume": 4887,
      "inder": 4888,
      "ideal": 4889,
      "morgan": 4890,
      "integr": 4891,
      "gles": 4892,
      "arded": 4893,
      "marie": 4894,
      "swim": 4895,
      "department": 4896,
      "jen": 4897,
      "vague": 4898,
      "dos": 4899,
      "exagger": 4900,
      "hanging": 4901,
      "whel": 4902,
      "irish": 4903,
      "laura": 4904,
      "distri": 4905,
      "flight": 4906,
      "abil": 4907,
      "poses": 4908,
      "southern": 4909,
      "influence": 4910,
      "sympathy": 4911,
      "pitch": 4912,
      "poign": 4913,
      "helen": 4914,
      "mainstream": 4915,
      "stereotypical": 4916,
      "vampires": 4917,
      "california": 4918,
      "tree": 4919,
      "sophis": 4920,
      "code": 4921,
      "spring": 4922,
      "guest": 4923,
      "wwi": 4924,
      "enthus": 4925,
      "compreh": 4926,
      "entertained": 4927,
      "depicted": 4928,
      "vietnam": 4929,
      "acqu": 4930,
      "abuse": 4931,
      "compar": 4932,
      "mates": 4933,
      "ashing": 4934,
      "johnson": 4935,
      "contemporary": 4936,
      "enthusi": 4937,
      "lud": 4938,
      "toler": 4939,
      "omen": 4940,
      "realizes": 4941,
      "stolen": 4942,
      "tast": 4943,
      "leep": 4944,
      "sophistic": 4945,
      "ji": 4946,
      "sne": 4947,
      "movement": 4948,
      "controvers": 4949,
      "ium": 4950,
      "vest": 4951,
      "asleep": 4952,
      "grab": 4953,
      "awards": 4954,
      "performed": 4955,
      "guilty": 4956,
      "hong": 4957,
      "tag": 4958,
      "franch": 4959,
      "weapons": 4960,
      "reporter": 4961,
      "sarah": 4962,
      "nominated": 4963,
      "las": 4964,
      "inn": 4965,
      "mann": 4966,
      "pulls": 4967,
      "legendary": 4968,
      "crying": 4969,
      "julia": 4970,
      "structure": 4971,
      "closer": 4972,
      "1st": 4973,
      "connected": 4974,
      "mud": 4975,
      "gritty": 4976,
      "franco": 4977,
      "destroyed": 4978,
      "isol": 4979,
      "chic": 4980,
      "letter": 4981,
      "resist": 4982,
      "term": 4983,
      "rach": 4984,
      "bach": 4985,
      "cure": 4986,
      "ential": 4987,
      "mented": 4988,
      "clark": 4989,
      "caly": 4990,
      "politics": 4991,
      "goofy": 4992,
      "lloyd": 4993,
      "semi": 4994,
      "ert": 4995,
      "resid": 4996,
      "suffers": 4997,
      "instru": 4998,
      "shy": 4999,
      "confess": 5000,
      "appreciated": 5001,
      "latest": 5002,
      "cannibal": 5003,
      "cence": 5004,
      "incid": 5005,
      "convinced": 5006,
      "inher": 5007,
      "aming": 5008,
      "stayed": 5009,
      "princess": 5010,
      "connect": 5011,
      "abandoned": 5012,
      "dinosaur": 5013,
      "tall": 5014,
      "mond": 5015,
      "touches": 5016,
      "suspenseful": 5017,
      "karl": 5018,
      "apocaly": 5019,
      "warner": 5020,
      "germany": 5021,
      "loyal": 5022,
      "frightening": 5023,
      "fbi": 5024,
      "device": 5025,
      "shif": 5026,
      "flynn": 5027,
      "ey": 5028,
      "seag": 5029,
      "amy": 5030,
      "neat": 5031,
      "cases": 5032,
      "jewish": 5033,
      "intellectual": 5034,
      "bull": 5035,
      "demo": 5036,
      "darkness": 5037,
      "repetit": 5038,
      "emphas": 5039,
      "partic": 5040,
      "cheer": 5041,
      "penn": 5042,
      "drinking": 5043,
      "thum": 5044,
      "dozen": 5045,
      "calling": 5046,
      "1980": 5047,
      "divor": 5048,
      "focused": 5049,
      "complicated": 5050,
      "quirky": 5051,
      "sink": 5052,
      "degree": 5053,
      "everywhere": 5054,
      "bush": 5055,
      "pile": 5056,
      "yu": 5057,
      "zil": 5058,
      "previously": 5059,
      "studios": 5060,
      "regarding": 5061,
      "!),": 5062,
      "china": 5063,
      "pets": 5064,
      "establish": 5065,
      "zan": 5066,
      "dur": 5067,
      "hugh": 5068,
      "minds": 5069,
      "rule": 5070,
      "melodrama": 5071,
      "tural": 5072,
      "murderer": 5073,
      "bic": 5074,
      "seek": 5075,
      "mono": 5076,
      "larry": 5077,
      "phant": 5078,
      "interviews": 5079,
      "holi": 5080,
      "tales": 5081,
      "worthwhile": 5082,
      "landsc": 5083,
      "continuity": 5084,
      "mail": 5085,
      "explor": 5086,
      "warned": 5087,
      "nude": 5088,
      "oooo": 5089,
      "accidentally": 5090,
      "gate": 5091,
      "worry": 5092,
      "initial": 5093,
      "status": 5094,
      "therine": 5095,
      "bothered": 5096,
      "productions": 5097,
      "westerns": 5098,
      "cave": 5099,
      "kur": 5100,
      "phe": 5101,
      "whoever": 5102,
      "dude": 5103,
      "render": 5104,
      "nuclear": 5105,
      "concent": 5106,
      "cheese": 5107,
      "convince": 5108,
      "rolled": 5109,
      "wins": 5110,
      "thro": 5111,
      "analy": 5112,
      "spy": 5113,
      "adequ": 5114,
      "cag": 5115,
      "cage": 5116,
      "charge": 5117,
      "borrow": 5118,
      "kni": 5119,
      "nostal": 5120,
      "butt": 5121,
      "excess": 5122,
      "improve": 5123,
      "powell": 5124,
      "greater": 5125,
      "claimed": 5126,
      "remotely": 5127,
      "prepared": 5128,
      "meat": 5129,
      "gues": 5130,
      "ached": 5131,
      "kiss": 5132,
      "sitcom": 5133,
      "focuses": 5134,
      "trap": 5135,
      "magical": 5136,
      "ee": 5137,
      "jon": 5138,
      "conv": 5139,
      "minded": 5140,
      "originality": 5141,
      "walter": 5142,
      "superman": 5143,
      "swed": 5144,
      "initially": 5145,
      "iger": 5146,
      "fortune": 5147,
      "captures": 5148,
      "thankfully": 5149,
      "required": 5150,
      "goth": 5151,
      "trilo": 5152,
      "surprises": 5153,
      "victori": 5154,
      "category": 5155,
      "storm": 5156,
      "reputation": 5157,
      "victor": 5158,
      "hired": 5159,
      "intim": 5160,
      "campy": 5161,
      "seasons": 5162,
      "spite": 5163,
      "accents": 5164,
      "arrives": 5165,
      "anced": 5166,
      "poe": 5167,
      "tz": 5168,
      "von": 5169,
      "deeper": 5170,
      "outing": 5171,
      "rhy": 5172,
      "iles": 5173,
      "gia": 5174,
      "examples": 5175,
      "aunt": 5176,
      "noxious": 5177,
      "forgot": 5178,
      "indul": 5179,
      "brick": 5180,
      "subsequ": 5181,
      "steps": 5182,
      "cagney": 5183,
      "outs": 5184,
      "miller": 5185,
      "edy": 5186,
      "challen": 5187,
      "feed": 5188,
      "choices": 5189,
      "passing": 5190,
      "funnier": 5191,
      "pink": 5192,
      "training": 5193,
      "heavily": 5194,
      "habit": 5195,
      "ludic": 5196,
      "nights": 5197,
      "rian": 5198,
      "voc": 5199,
      "jeal": 5200,
      "bbc": 5201,
      "screening": 5202,
      "closing": 5203,
      "massive": 5204,
      "alter": 5205,
      "lonely": 5206,
      "tommy": 5207,
      "recognize": 5208,
      "occup": 5209,
      "1970": 5210,
      "extraordinary": 5211,
      "sab": 5212,
      "touched": 5213,
      "seagal": 5214,
      "spoken": 5215,
      "amazingly": 5216,
      "advant": 5217,
      "wea": 5218,
      "balls": 5219,
      "summary": 5220,
      "brazil": 5221,
      "broadway": 5222,
      "vast": 5223,
      "aded": 5224,
      "ami": 5225,
      "curse": 5226,
      "explains": 5227,
      "dece": 5228,
      "lucy": 5229,
      "paying": 5230,
      "error": 5231,
      "bollywood": 5232,
      "internet": 5233,
      "obnoxious": 5234,
      "mexico": 5235,
      "washington": 5236,
      "gm": 5237,
      "stair": 5238,
      "join": 5239,
      "warri": 5240,
      "starred": 5241,
      "amazed": 5242,
      "painting": 5243,
      "pati": 5244,
      "profound": 5245,
      "captiv": 5246,
      "kat": 5247,
      "essential": 5248,
      "blockbuster": 5249,
      "stomach": 5250,
      "designed": 5251,
      "kets": 5252,
      "condition": 5253,
      "favorites": 5254,
      "occasional": 5255,
      "upper": 5256,
      "parker": 5257,
      "ashed": 5258,
      "unlikely": 5259,
      "expert": 5260,
      "otes": 5261,
      "buying": 5262,
      "address": 5263,
      "sna": 5264,
      "timing": 5265,
      "icted": 5266,
      "appearing": 5267,
      "delivery": 5268,
      "decades": 5269,
      "?).": 5270,
      "boun": 5271,
      "uninteresting": 5272,
      ",'": 5273,
      "bare": 5274,
      "eral": 5275,
      "albert": 5276,
      "bron": 5277,
      "bern": 5278,
      "philli": 5279,
      "dawn": 5280,
      "drew": 5281,
      "ari": 5282,
      "chose": 5283,
      "disagree": 5284,
      "border": 5285,
      "fictional": 5286,
      "abilities": 5287,
      "hoff": 5288,
      "bore": 5289,
      "kinds": 5290,
      "clown": 5291,
      "collect": 5292,
      "throwing": 5293,
      "mickey": 5294,
      "scares": 5295,
      "admitted": 5296,
      "trilogy": 5297,
      "orient": 5298,
      "shoes": 5299,
      "friendly": 5300,
      "uniform": 5301,
      "hitler": 5302,
      "packed": 5303,
      "knight": 5304,
      "thed": 5305,
      "femin": 5306,
      "enjoying": 5307,
      "africa": 5308,
      "pes": 5309,
      "stro": 5310,
      "torn": 5311,
      "lifetime": 5312,
      "downright": 5313,
      "particip": 5314,
      "bird": 5315,
      "icated": 5316,
      "rix": 5317,
      "tarant": 5318,
      "wealthy": 5319,
      "lands": 5320,
      "official": 5321,
      "bia": 5322,
      "hopeless": 5323,
      "bride": 5324,
      "nonetheless": 5325,
      "weapon": 5326,
      "aston": 5327,
      "blat": 5328,
      "conspir": 5329,
      "confront": 5330,
      "grues": 5331,
      "storytelling": 5332,
      "ruin": 5333,
      "searching": 5334,
      "determined": 5335,
      "indie": 5336,
      "struggling": 5337,
      "bang": 5338,
      "sive": 5339,
      "task": 5340,
      "unconvincing": 5341,
      "patri": 5342,
      "uted": 5343,
      "kel": 5344,
      "gray": 5345,
      "paralle": 5346,
      "appall": 5347,
      "atrocious": 5348,
      "sham": 5349,
      "amongst": 5350,
      "throws": 5351,
      "reference": 5352,
      "atives": 5353,
      "creation": 5354,
      "severe": 5355,
      "bber": 5356,
      "winter": 5357,
      "tear": 5358,
      "desperately": 5359,
      "riding": 5360,
      "brooks": 5361,
      "pg": 5362,
      "redu": 5363,
      "phen": 5364,
      "jobs": 5365,
      "balance": 5366,
      "narration": 5367,
      "effectively": 5368,
      "robber": 5369,
      "succeeds": 5370,
      "cultural": 5371,
      "mildly": 5372,
      "environment": 5373,
      "gruesome": 5374,
      "fiance": 5375,
      "ninja": 5376,
      "pher": 5377,
      "pig": 5378,
      "awa": 5379,
      "offered": 5380,
      "anity": 5381,
      "wears": 5382,
      "2000": 5383,
      "ignore": 5384,
      "paint": 5385,
      "weekend": 5386,
      "asm": 5387,
      "beit": 5388,
      "artists": 5389,
      "carries": 5390,
      "distinct": 5391,
      "2001": 5392,
      "introduction": 5393,
      "provoking": 5394,
      "underground": 5395,
      "handle": 5396,
      "respon": 5397,
      "tradition": 5398,
      "mgm": 5399,
      "itar": 5400,
      "perfection": 5401,
      "conven": 5402,
      "screenwriter": 5403,
      "colon": 5404,
      "colors": 5405,
      "mistakes": 5406,
      "mst": 5407,
      "isto": 5408,
      "albeit": 5409,
      "stylish": 5410,
      "fairy": 5411,
      "lawyer": 5412,
      "striking": 5413,
      "vacation": 5414,
      "reminiscent": 5415,
      "racist": 5416,
      "ware": 5417,
      "elder": 5418,
      "24": 5419,
      "bis": 5420,
      "sket": 5421,
      "uss": 5422,
      "sav": 5423,
      "sla": 5424,
      "combined": 5425,
      "mit": 5426,
      "rum": 5427,
      "yo": 5428,
      "answers": 5429,
      "struck": 5430,
      "tremend": 5431,
      "concert": 5432,
      "tick": 5433,
      "aken": 5434,
      "bugs": 5435,
      "capital": 5436,
      "criminals": 5437,
      "dict": 5438,
      "prevent": 5439,
      "nery": 5440,
      "journal": 5441,
      "entry": 5442,
      "proof": 5443,
      "bette": 5444,
      "broke": 5445,
      "figures": 5446,
      "properly": 5447,
      "stab": 5448,
      "doo": 5449,
      "maria": 5450,
      "folk": 5451,
      "risk": 5452,
      "wheel": 5453,
      "editor": 5454,
      "teeth": 5455,
      "stranger": 5456,
      "caine": 5457,
      "astr": 5458,
      "attempting": 5459,
      "attacked": 5460,
      "wwii": 5461,
      "chased": 5462,
      "walker": 5463,
      "causes": 5464,
      "ifi": 5465,
      "oliver": 5466,
      ":)": 5467,
      "beck": 5468,
      "ading": 5469,
      "overwhel": 5470,
      "addy": 5471,
      "deliber": 5472,
      "freddy": 5473,
      "criticism": 5474,
      "maniac": 5475,
      "metap": 5476,
      "nurse": 5477,
      "oil": 5478,
      "actic": 5479,
      "treasure": 5480,
      "kane": 5481,
      "ensu": 5482,
      "disgu": 5483,
      "ashamed": 5484,
      "linda": 5485,
      "learning": 5486,
      "depiction": 5487,
      "bridge": 5488,
      "finger": 5489,
      "assistant": 5490,
      "lap": 5491,
      "todd": 5492,
      "restaur": 5493,
      "dollar": 5494,
      "pregnant": 5495,
      "dare": 5496,
      "fx": 5497,
      "toy": 5498,
      "alright": 5499,
      "notori": 5500,
      "aking": 5501,
      "everyday": 5502,
      "contact": 5503,
      "sounded": 5504,
      "attacks": 5505,
      "blair": 5506,
      "sunday": 5507,
      "regardless": 5508,
      "chasing": 5509,
      "joint": 5510,
      "contest": 5511,
      "imagery": 5512,
      "stays": 5513,
      "reveals": 5514,
      "atra": 5515,
      "scrip": 5516,
      "assign": 5517,
      "oth": 5518,
      "uff": 5519,
      "aces": 5520,
      "woo": 5521,
      "baseball": 5522,
      "significant": 5523,
      "\"?": 5524,
      "tte": 5525,
      "ada": 5526,
      "comical": 5527,
      "horrific": 5528,
      "renting": 5529,
      "carried": 5530,
      "alike": 5531,
      "technically": 5532,
      "franchise": 5533,
      "ludicrous": 5534,
      "size": 5535,
      "1950": 5536,
      "sinister": 5537,
      "tribute": 5538,
      "fighter": 5539,
      "reward": 5540,
      "lia": 5541,
      "poet": 5542,
      "crush": 5543,
      "graphics": 5544,
      "equal": 5545,
      "challenge": 5546,
      "crude": 5547,
      "halfway": 5548,
      "listening": 5549,
      "eastwood": 5550,
      "thre": 5551,
      "bald": 5552,
      "intentional": 5553,
      "yan": 5554,
      "neil": 5555,
      "curt": 5556,
      "successfully": 5557,
      "frankenstein": 5558,
      "acing": 5559,
      "pled": 5560,
      "premi": 5561,
      "innocence": 5562,
      "stoo": 5563,
      "yard": 5564,
      "acle": 5565,
      "ida": 5566,
      "stops": 5567,
      "dramat": 5568,
      "fabulous": 5569,
      "rachel": 5570,
      "league": 5571,
      "pointed": 5572,
      "clips": 5573,
      "retarded": 5574,
      "crafted": 5575,
      "chor": 5576,
      "disbelief": 5577,
      "clock": 5578,
      "harm": 5579,
      "fortunately": 5580,
      "osity": 5581,
      "shape": 5582,
      "kis": 5583,
      "yl": 5584,
      "exer": 5585,
      "letting": 5586,
      "compass": 5587,
      "titled": 5588,
      "trait": 5589,
      "lished": 5590,
      "intr": 5591,
      "stunt": 5592,
      "libr": 5593,
      "afternoon": 5594,
      "ugs": 5595,
      "patient": 5596,
      "fond": 5597,
      "gee": 5598,
      "geon": 5599,
      "plastic": 5600,
      "shell": 5601,
      "clu": 5602,
      "advantage": 5603,
      "kath": 5604,
      "isher": 5605,
      "mun": 5606,
      "rein": 5607,
      "access": 5608,
      "leslie": 5609,
      "mul": 5610,
      "tery": 5611,
      "disc": 5612,
      "workers": 5613,
      "newsp": 5614,
      "caring": 5615,
      "spook": 5616,
      "extent": 5617,
      "facial": 5618,
      "ratings": 5619,
      "install": 5620,
      "expressions": 5621,
      "sleeping": 5622,
      "gab": 5623,
      "seeking": 5624,
      "burst": 5625,
      "britain": 5626,
      "nicol": 5627,
      "competit": 5628,
      "notable": 5629,
      "basis": 5630,
      "bilities": 5631,
      "assassin": 5632,
      "iat": 5633,
      "andering": 5634,
      "madness": 5635,
      "fourth": 5636,
      "atmospher": 5637,
      "carp": 5638,
      "cliff": 5639,
      "laid": 5640,
      "griff": 5641,
      "inspiring": 5642,
      "bast": 5643,
      "gul": 5644,
      "rome": 5645,
      "daily": 5646,
      "strangely": 5647,
      "flawed": 5648,
      "smoking": 5649,
      "description": 5650,
      "motor": 5651,
      "shr": 5652,
      "...\"": 5653,
      "mindless": 5654,
      "countries": 5655,
      "predator": 5656,
      "cynical": 5657,
      "holiday": 5658,
      "dge": 5659,
      "turner": 5660,
      "luke": 5661,
      "novels": 5662,
      "sophisticated": 5663,
      "hr": 5664,
      "hence": 5665,
      "happiness": 5666,
      "demons": 5667,
      "inspiration": 5668,
      "vier": 5669,
      "magaz": 5670,
      "acceptable": 5671,
      "bam": 5672,
      "ural": 5673,
      "shorts": 5674,
      "guide": 5675,
      "silence": 5676,
      "picks": 5677,
      "tarantino": 5678,
      "hust": 5679,
      "slaughter": 5680,
      "indu": 5681,
      "presentation": 5682,
      "stealing": 5683,
      "conventional": 5684,
      "minimal": 5685,
      "poignant": 5686,
      "ads": 5687,
      "ime": 5688,
      "selling": 5689,
      "vices": 5690,
      "confusion": 5691,
      "sandler": 5692,
      "kirk": 5693,
      "lisa": 5694,
      "tap": 5695,
      "infer": 5696,
      "doc": 5697,
      "scor": 5698,
      "greatly": 5699,
      "trium": 5700,
      "helping": 5701,
      "hatt": 5702,
      "olic": 5703,
      "michelle": 5704,
      "bac": 5705,
      "ament": 5706,
      "spiel": 5707,
      "warming": 5708,
      "elev": 5709,
      "factory": 5710,
      "oce": 5711,
      "aki": 5712,
      "betty": 5713,
      "screw": 5714,
      "cousin": 5715,
      "gut": 5716,
      "theory": 5717,
      "stupidity": 5718,
      "battles": 5719,
      "zone": 5720,
      "aze": 5721,
      "thirty": 5722,
      "hears": 5723,
      "pover": 5724,
      "mansion": 5725,
      "happily": 5726,
      "piano": 5727,
      "60s": 5728,
      "99": 5729,
      "alas": 5730,
      "adays": 5731,
      "marg": 5732,
      "consistent": 5733,
      "iro": 5734,
      "exceptional": 5735,
      "purely": 5736,
      "sentimental": 5737,
      "ov": 5738,
      "nowadays": 5739,
      "kicks": 5740,
      "philip": 5741,
      "frequently": 5742,
      "scripts": 5743,
      "sleazy": 5744,
      "ghosts": 5745,
      "nit": 5746,
      "uncomfortable": 5747,
      "finan": 5748,
      "reads": 5749,
      "tongue": 5750,
      "pas": 5751,
      "diam": 5752,
      "string": 5753,
      "fallen": 5754,
      "repeat": 5755,
      "technique": 5756,
      "oting": 5757,
      "counts": 5758,
      "logist": 5759,
      "tune": 5760,
      "dear": 5761,
      "mechan": 5762,
      "kenned": 5763,
      "gripping": 5764,
      "hiding": 5765,
      "intens": 5766,
      "flor": 5767,
      "carl": 5768,
      "phr": 5769,
      "crimes": 5770,
      "scratch": 5771,
      "cats": 5772,
      "thew": 5773,
      "whereas": 5774,
      "fonda": 5775,
      "knife": 5776,
      "ego": 5777,
      "pion": 5778,
      "beloved": 5779,
      "mentally": 5780,
      "terrorist": 5781,
      "cowboy": 5782,
      "cod": 5783,
      "tense": 5784,
      "clum": 5785,
      "settings": 5786,
      "innov": 5787,
      "separate": 5788,
      "champion": 5789,
      "guarante": 5790,
      "useless": 5791,
      "chy": 5792,
      "gosi": 5793,
      "pray": 5794,
      "credible": 5795,
      "smooth": 5796,
      "billi": 5797,
      "announ": 5798,
      "hud": 5799,
      "rever": 5800,
      "outer": 5801,
      "clint": 5802,
      "angels": 5803,
      "192": 5804,
      "solve": 5805,
      "dramas": 5806,
      "credibility": 5807,
      "greek": 5808,
      "gger": 5809,
      "alleg": 5810,
      "boot": 5811,
      "simpl": 5812,
      "pressed": 5813,
      "oddly": 5814,
      "carrying": 5815,
      "lazy": 5816,
      "virus": 5817,
      "goal": 5818,
      "conve": 5819,
      "elled": 5820,
      "legs": 5821,
      "anticip": 5822,
      "thousands": 5823,
      "santa": 5824,
      "tin": 5825,
      "struggles": 5826,
      "escapes": 5827,
      "tat": 5828,
      "locked": 5829,
      "revolves": 5830,
      "mitchell": 5831,
      "exists": 5832,
      "lesser": 5833,
      "corner": 5834,
      "lugosi": 5835,
      "shoots": 5836,
      "established": 5837,
      "chilling": 5838,
      "aby": 5839,
      "ultra": 5840,
      "illust": 5841,
      "connery": 5842,
      "shines": 5843,
      "sincere": 5844,
      "twin": 5845,
      "*****": 5846,
      "hills": 5847,
      "embarrassed": 5848,
      "kidnapped": 5849,
      "marvelous": 5850,
      "45": 5851,
      "gus": 5852,
      "centric": 5853,
      "murray": 5854,
      "indians": 5855,
      "tarzan": 5856,
      "idiotic": 5857,
      "kennedy": 5858,
      "replace": 5859,
      "ripped": 5860,
      "web": 5861,
      "welles": 5862,
      "sexuality": 5863,
      "stunts": 5864,
      "tors": 5865,
      "jerk": 5866,
      "spiritual": 5867,
      "chil": 5868,
      "ironic": 5869,
      "drives": 5870,
      "cen": 5871,
      "sevent": 5872,
      "quote": 5873,
      "topic": 5874,
      "nd": 5875,
      "march": 5876,
      "interpretation": 5877,
      "garden": 5878,
      "ske": 5879,
      "chew": 5880,
      "medical": 5881,
      "guessing": 5882,
      "ib": 5883,
      "zilla": 5884,
      "holo": 5885,
      "aude": 5886,
      "italy": 5887,
      "millions": 5888,
      "expensive": 5889,
      "surrounding": 5890,
      "dave": 5891,
      "thief": 5892,
      "burns": 5893,
      "enor": 5894,
      "absor": 5895,
      "belongs": 5896,
      "wicked": 5897,
      "spielberg": 5898,
      "karen": 5899,
      "suits": 5900,
      "doors": 5901,
      "opened": 5902,
      "passes": 5903,
      "rooms": 5904,
      "grandfather": 5905,
      "colorful": 5906,
      "pseu": 5907,
      "intentions": 5908,
      "icing": 5909,
      "advan": 5910,
      "drun": 5911,
      "comedian": 5912,
      "myth": 5913,
      "cig": 5914,
      "econ": 5915,
      "chases": 5916,
      "erson": 5917,
      "ishment": 5918,
      "posing": 5919,
      "appearances": 5920,
      "spoiled": 5921,
      "accepted": 5922,
      "bart": 5923,
      "arrog": 5924,
      "vivid": 5925,
      "hem": 5926,
      "gio": 5927,
      "valent": 5928,
      "royal": 5929,
      "\"...": 5930,
      "rates": 5931,
      "beer": 5932,
      "wasting": 5933,
      "elabor": 5934,
      "noted": 5935,
      "loid": 5936,
      "sus": 5937,
      "shed": 5938,
      "opath": 5939,
      "custo": 5940,
      "vicious": 5941,
      "godzilla": 5942,
      "spider": 5943,
      "fashioned": 5944,
      "protagonists": 5945,
      "duke": 5946,
      "cheek": 5947,
      "belle": 5948,
      "hipp": 5949,
      "rial": 5950,
      "dislike": 5951,
      "cringe": 5952,
      "restaurant": 5953,
      "econom": 5954,
      "gic": 5955,
      "istan": 5956,
      "spark": 5957,
      "affection": 5958,
      "blance": 5959,
      "burt": 5960,
      "cycle": 5961,
      "engine": 5962,
      "2005": 5963,
      "suggests": 5964,
      "destruction": 5965,
      "etern": 5966,
      "gall": 5967,
      "lest": 5968,
      "irony": 5969,
      "quis": 5970,
      "duck": 5971,
      "reasonable": 5972,
      "burton": 5973,
      "thrillers": 5974,
      "transfer": 5975,
      "spending": 5976,
      "drum": 5977,
      "atmospheric": 5978,
      "stiff": 5979,
      "beating": 5980,
      "heat": 5981,
      "cake": 5982,
      "explosions": 5983,
      "homage": 5984,
      "immense": 5985,
      "canada": 5986,
      "sque": 5987,
      "convey": 5988,
      "oblig": 5989,
      "bearable": 5990,
      "eyed": 5991,
      "adol": 5992,
      "trau": 5993,
      "guid": 5994,
      "listed": 5995,
      "obsession": 5996,
      "ik": 5997,
      "redem": 5998,
      "widow": 5999,
      "dign": 6000,
      "believably": 6001,
      "boredom": 6002,
      "crook": 6003,
      "mble": 6004,
      "eness": 6005,
      "upset": 6006,
      "spar": 6007,
      "videos": 6008,
      "grey": 6009,
      "destro": 6010,
      "pon": 6011,
      "asp": 6012,
      "attempted": 6013,
      "physically": 6014,
      "andrew": 6015,
      "tricks": 6016,
      "elsewhere": 6017,
      "existent": 6018,
      "distribut": 6019,
      "bears": 6020,
      "icting": 6021,
      "parano": 6022,
      "psychiat": 6023,
      "performers": 6024,
      "wave": 6025,
      "haha": 6026,
      "personalities": 6027,
      "dunne": 6028,
      "chicago": 6029,
      "selfish": 6030,
      "jection": 6031,
      "australia": 6032,
      "lovable": 6033,
      "antics": 6034,
      "hardy": 6035,
      "importance": 6036,
      "racism": 6037,
      "insulting": 6038,
      "ambitious": 6039,
      "metaphor": 6040,
      "tied": 6041,
      "rely": 6042,
      "toile": 6043,
      "nose": 6044,
      "foster": 6045,
      "ggy": 6046,
      "weakness": 6047,
      "troubled": 6048,
      "aired": 6049,
      "tam": 6050,
      "ila": 6051,
      "stain": 6052,
      "vised": 6053,
      "mst3": 6054,
      "fic": 6055,
      "marke": 6056,
      "shadows": 6057,
      "korean": 6058,
      "carpenter": 6059,
      "tons": 6060,
      "manager": 6061,
      "rageous": 6062,
      "......": 6063,
      "instantly": 6064,
      "isms": 6065,
      "outrageous": 6066,
      "curren": 6067,
      "consists": 6068,
      "torial": 6069,
      "philosoph": 6070,
      "hing": 6071,
      "hbo": 6072,
      "fields": 6073,
      "smoke": 6074,
      "replaced": 6075,
      "rive": 6076,
      "presum": 6077,
      "midnight": 6078,
      "grows": 6079,
      "tire": 6080,
      "aced": 6081,
      "stood": 6082,
      "trial": 6083,
      "voy": 6084,
      "closely": 6085,
      "reflect": 6086,
      "bobby": 6087,
      "techniques": 6088,
      "bogart": 6089,
      "explicit": 6090,
      "pitt": 6091,
      "button": 6092,
      "caust": 6093,
      "prisoners": 6094,
      "scientists": 6095,
      "eager": 6096,
      "hous": 6097,
      "uninspired": 6098,
      "josh": 6099,
      "month": 6100,
      "glory": 6101,
      "specific": 6102,
      "prostitute": 6103,
      "glimpse": 6104,
      "electric": 6105,
      "ocean": 6106,
      "asingly": 6107,
      "staff": 6108,
      "brow": 6109,
      "strike": 6110,
      "health": 6111,
      "waters": 6112,
      "carefully": 6113,
      "miserably": 6114,
      "patch": 6115,
      "thick": 6116,
      "inj": 6117,
      "allo": 6118,
      "chest": 6119,
      "ambig": 6120,
      "myst": 6121,
      "overcome": 6122,
      "burning": 6123,
      "egg": 6124,
      "pam": 6125,
      "pear": 6126,
      "guilt": 6127,
      "relax": 6128,
      "aney": 6129,
      "nik": 6130,
      "typically": 6131,
      "gradu": 6132,
      "repeatedly": 6133,
      "columbo": 6134,
      "claude": 6135,
      "pses": 6136,
      "lessons": 6137,
      "turing": 6138,
      "split": 6139,
      "charisma": 6140,
      "pound": 6141,
      "inc": 6142,
      "forgive": 6143,
      "suspects": 6144,
      "boom": 6145,
      "relent": 6146,
      "territory": 6147,
      "curiosity": 6148,
      "controversial": 6149,
      "ology": 6150,
      "attraction": 6151,
      "jumps": 6152,
      "mim": 6153,
      "tool": 6154,
      "sele": 6155,
      "horrend": 6156,
      "catherine": 6157,
      "thrilling": 6158,
      "refuses": 6159,
      "carter": 6160,
      "ception": 6161,
      "pacino": 6162,
      "investigation": 6163,
      "wack": 6164,
      "cham": 6165,
      "flag": 6166,
      "scripted": 6167,
      "cameron": 6168,
      "shaw": 6169,
      "bergman": 6170,
      "blows": 6171,
      "hoffman": 6172,
      "phenomen": 6173,
      "egy": 6174,
      "arnold": 6175,
      "unforgettable": 6176,
      "math": 6177,
      "combat": 6178,
      "consequences": 6179,
      "1950s": 6180,
      "hooked": 6181,
      "neighborhood": 6182,
      "sadd": 6183,
      "emily": 6184,
      "counters": 6185,
      "eerie": 6186,
      "obscure": 6187,
      "cary": 6188,
      "jona": 6189,
      "mouse": 6190,
      "infamous": 6191,
      "inexplic": 6192,
      "spector": 6193,
      "busy": 6194,
      "larger": 6195,
      "chester": 6196,
      "medium": 6197,
      "angeles": 6198,
      "mund": 6199,
      "toss": 6200,
      "handful": 6201,
      "wyck": 6202,
      "nancy": 6203,
      "hundreds": 6204,
      "jonathan": 6205,
      "dled": 6206,
      "gren": 6207,
      "noble": 6208,
      "exor": 6209,
      "plague": 6210,
      "enda": 6211,
      "blade": 6212,
      "males": 6213,
      "ralph": 6214,
      "repetitive": 6215,
      "triumph": 6216,
      "mp": 6217,
      "confron": 6218,
      "clay": 6219,
      "blan": 6220,
      "caric": 6221,
      "subplot": 6222,
      "slick": 6223,
      "arrive": 6224,
      "icop": 6225,
      "essence": 6226,
      "bleak": 6227,
      "saves": 6228,
      "persona": 6229,
      "helicop": 6230,
      "wake": 6231,
      "2006": 6232,
      "secrets": 6233,
      "hearts": 6234,
      "increasingly": 6235,
      "mode": 6236,
      "detr": 6237,
      "matthew": 6238,
      "gotta": 6239,
      "morris": 6240,
      "lucas": 6241,
      "1970s": 6242,
      "intensity": 6243,
      "mst3k": 6244,
      "bless": 6245,
      "superfic": 6246,
      "hunting": 6247,
      "gie": 6248,
      "hul": 6249,
      "hitting": 6250,
      "nun": 6251,
      "racial": 6252,
      "tender": 6253,
      "adequate": 6254,
      "dent": 6255,
      "survival": 6256,
      "concerns": 6257,
      "iii": 6258,
      "inevitable": 6259,
      "poverty": 6260,
      "vig": 6261,
      "coast": 6262,
      "killings": 6263,
      "mighty": 6264,
      "!!!!!!!!": 6265,
      "satisfied": 6266,
      "bible": 6267,
      "claire": 6268,
      "beings": 6269,
      "stanwyck": 6270,
      "catholic": 6271,
      "redemption": 6272,
      "guts": 6273,
      "armed": 6274,
      "briefly": 6275,
      "puppet": 6276,
      "jessica": 6277,
      "logue": 6278,
      "opposed": 6279,
      "dropped": 6280,
      "adapted": 6281,
      "lifest": 6282,
      "horses": 6283,
      "ensemble": 6284,
      "portrait": 6285,
      "bury": 6286,
      "identify": 6287,
      "banks": 6288,
      "jumping": 6289,
      "hysterical": 6290,
      "fitting": 6291,
      "ingen": 6292,
      "stress": 6293,
      "unintentionally": 6294,
      "matrix": 6295,
      "buried": 6296,
      "sings": 6297,
      "ification": 6298,
      "suffered": 6299,
      "raped": 6300,
      "empire": 6301,
      "possessed": 6302,
      "admittedly": 6303,
      "activ": 6304,
      "shower": 6305,
      "willis": 6306,
      "develops": 6307,
      "daughters": 6308,
      "bullet": 6309,
      "dubbing": 6310,
      "shirt": 6311,
      "conspiracy": 6312,
      "pap": 6313,
      "sag": 6314,
      "appl": 6315,
      "agents": 6316,
      "ako": 6317,
      "highlights": 6318,
      "enjoyment": 6319,
      "smug": 6320,
      "meaningful": 6321,
      "rogers": 6322,
      "achieved": 6323,
      "newspaper": 6324,
      "worker": 6325,
      "audio": 6326,
      "revelation": 6327,
      "rious": 6328,
      "limit": 6329,
      "birthday": 6330,
      "karloff": 6331,
      "soviet": 6332,
      "scars": 6333,
      "afore": 6334,
      "sinatra": 6335,
      "rocky": 6336,
      "dragged": 6337,
      "encounters": 6338,
      "inger": 6339,
      "ourselves": 6340,
      "ishes": 6341,
      "crum": 6342,
      "talked": 6343,
      "bucks": 6344,
      "launch": 6345,
      "gather": 6346,
      "crystal": 6347,
      "lol": 6348,
      "holly": 6349,
      "trite": 6350,
      "cole": 6351,
      "needless": 6352,
      "harold": 6353,
      "allowing": 6354,
      "importantly": 6355,
      "salv": 6356,
      "ifies": 6357,
      "eval": 6358,
      "engage": 6359,
      "pleasantly": 6360,
      "basement": 6361,
      "melodramatic": 6362,
      "cabin": 6363,
      "jamie": 6364,
      "library": 6365,
      "caricature": 6366,
      "det": 6367,
      "cardboard": 6368,
      "breathtaking": 6369,
      "ignored": 6370,
      "gift": 6371,
      "ables": 6372,
      "closed": 6373,
      "reasonably": 6374,
      "pride": 6375,
      "dud": 6376,
      "uct": 6377,
      "soph": 6378,
      "berry": 6379,
      "serving": 6380,
      "marine": 6381,
      "navy": 6382,
      "hype": 6383,
      "chainsaw": 6384,
      "exercise": 6385,
      "egypt": 6386,
      "jet": 6387,
      "horrors": 6388,
      "eccentric": 6389,
      "cart": 6390,
      "jol": 6391,
      "ops": 6392,
      "returning": 6393,
      "restrain": 6394,
      "vet": 6395,
      "therland": 6396,
      "maf": 6397,
      "farce": 6398,
      "sexually": 6399,
      "wishes": 6400,
      "picking": 6401,
      "survivors": 6402,
      "childish": 6403,
      "bby": 6404,
      "resort": 6405,
      "direc": 6406,
      "holocaust": 6407,
      "yel": 6408,
      "imit": 6409,
      "unit": 6410,
      "hibit": 6411,
      "remaining": 6412,
      "university": 6413,
      "vulner": 6414,
      "pseudo": 6415,
      "drunken": 6416,
      "2nd": 6417,
      "?),": 6418,
      "cities": 6419,
      "quaid": 6420,
      "warn": 6421,
      "creators": 6422,
      "sadistic": 6423,
      "motivation": 6424,
      "mafia": 6425,
      "staged": 6426,
      "accompan": 6427,
      "unpleasant": 6428,
      "beaten": 6429,
      "clar": 6430,
      "dancer": 6431,
      "iter": 6432,
      "liking": 6433,
      "syl": 6434,
      "eleg": 6435,
      "response": 6436,
      "!.": 6437,
      "pants": 6438,
      "terrifying": 6439,
      "sutherland": 6440,
      "planned": 6441,
      "immig": 6442,
      "fifteen": 6443,
      "stretch": 6444,
      "snake": 6445,
      "bren": 6446,
      "labor": 6447,
      "sends": 6448,
      "terry": 6449,
      "coincid": 6450,
      "hypo": 6451,
      "affected": 6452,
      "competition": 6453,
      "zel": 6454,
      "altogether": 6455,
      "prejud": 6456,
      "breasts": 6457,
      "stereotype": 6458,
      "sneak": 6459,
      "punk": 6460,
      "loser": 6461,
      "credited": 6462,
      "portion": 6463,
      "individuals": 6464,
      "associated": 6465,
      "notorious": 6466,
      "wan": 6467,
      "blast": 6468,
      "pulp": 6469,
      "scarlet": 6470,
      "rushed": 6471,
      "duty": 6472,
      "rank": 6473,
      "cos": 6474,
      "insist": 6475,
      "cruise": 6476,
      "ranks": 6477,
      "walls": 6478,
      "travels": 6479,
      "revealing": 6480,
      "broadcast": 6481,
      "pper": 6482,
      "thel": 6483,
      "countless": 6484,
      "tortured": 6485,
      "fist": 6486,
      "kay": 6487,
      "sally": 6488,
      "inspector": 6489,
      "returned": 6490,
      "atl": 6491,
      "covers": 6492,
      "overlooked": 6493,
      "shortly": 6494,
      "possibility": 6495,
      "tiger": 6496,
      "reel": 6497,
      "vich": 6498,
      "watches": 6499,
      "blur": 6500,
      "blowing": 6501,
      "accomplished": 6502,
      "hire": 6503,
      "ellar": 6504,
      "stole": 6505,
      "believing": 6506,
      "specif": 6507,
      "sacrif": 6508,
      "documentaries": 6509,
      "characterization": 6510,
      "spots": 6511,
      "twins": 6512,
      "brea": 6513,
      "nazis": 6514,
      "sacrifice": 6515,
      "jake": 6516,
      "ramp": 6517,
      "peak": 6518,
      "irene": 6519,
      "inser": 6520,
      "notes": 6521,
      "precise": 6522,
      "kings": 6523,
      "drown": 6524,
      "digital": 6525,
      "charismatic": 6526,
      "toilet": 6527,
      "ancy": 6528,
      "keeper": 6529,
      "funeral": 6530,
      "lacked": 6531,
      "engaged": 6532,
      "doubted": 6533,
      "dialogs": 6534,
      "hudson": 6535,
      "lun": 6536,
      "wright": 6537,
      "backdrop": 6538,
      "norman": 6539,
      "craig": 6540,
      "annoyed": 6541,
      "wannabe": 6542,
      "liberal": 6543,
      "oke": 6544,
      "user": 6545,
      "precious": 6546,
      "subsequent": 6547,
      "peck": 6548,
      "conserv": 6549,
      "grah": 6550,
      "offering": 6551,
      "calm": 6552,
      "hoped": 6553,
      "owen": 6554,
      "rapid": 6555,
      "circus": 6556,
      "crisis": 6557,
      "arab": 6558,
      "enters": 6559,
      "wet": 6560,
      "afford": 6561,
      "checking": 6562,
      "parent": 6563,
      "campbell": 6564,
      "cist": 6565,
      "ix": 6566,
      "tad": 6567,
      "oma": 6568,
      "rio": 6569,
      "fatal": 6570,
      "drags": 6571,
      "zing": 6572,
      "rell": 6573,
      "iser": 6574,
      "germans": 6575,
      "transport": 6576,
      "swedish": 6577,
      "stairs": 6578,
      "magazine": 6579,
      "cof": 6580,
      "iation": 6581,
      "ique": 6582,
      "ligh": 6583,
      "projects": 6584,
      "dani": 6585,
      "juven": 6586,
      "population": 6587,
      "traveling": 6588,
      "occurs": 6589,
      "stanley": 6590,
      "citizen": 6591,
      "vous": 6592,
      "icient": 6593,
      "quel": 6594,
      "horrid": 6595,
      "extended": 6596,
      "merit": 6597,
      "mistaken": 6598,
      "idiots": 6599,
      "splen": 6600,
      "discovery": 6601,
      "robbery": 6602,
      "spooky": 6603,
      "unbelievably": 6604,
      "condu": 6605,
      "worlds": 6606,
      "godfather": 6607,
      "narrator": 6608,
      "ata": 6609,
      "bold": 6610,
      "miscast": 6611,
      "!!!!!": 6612,
      "reluct": 6613,
      "cler": 6614,
      "afterwards": 6615,
      "ashes": 6616,
      "emma": 6617,
      "causing": 6618,
      "heroic": 6619,
      "tremendous": 6620,
      "gid": 6621,
      "enem": 6622,
      "liar": 6623,
      "raj": 6624,
      "corpse": 6625,
      "morrow": 6626,
      "bene": 6627,
      "politically": 6628,
      "providing": 6629,
      "fired": 6630,
      "mile": 6631,
      "isation": 6632,
      "argue": 6633,
      "builds": 6634,
      "strikes": 6635,
      "kudos": 6636,
      "iraq": 6637,
      "invisible": 6638,
      "holy": 6639,
      "gian": 6640,
      "wonders": 6641,
      "stronger": 6642,
      "********": 6643,
      "terrorists": 6644,
      "officers": 6645,
      "presumably": 6646,
      "ader": 6647,
      "holl": 6648,
      "dub": 6649,
      "producing": 6650,
      "cycl": 6651,
      "cameos": 6652,
      "lawrence": 6653,
      "instit": 6654,
      "removed": 6655,
      "dutch": 6656,
      "excl": 6657,
      "prote": 6658,
      "grav": 6659,
      "realise": 6660,
      "hyp": 6661,
      "generous": 6662,
      "brilliance": 6663,
      "20th": 6664,
      "signs": 6665,
      "resembles": 6666,
      "dolph": 6667,
      "asion": 6668,
      "poison": 6669,
      "frag": 6670,
      "assa": 6671,
      "fla": 6672,
      "mummy": 6673,
      "muse": 6674,
      "reject": 6675,
      "sidekick": 6676,
      "drivel": 6677,
      "thrills": 6678,
      "groups": 6679,
      "swing": 6680,
      "resour": 6681,
      "musicals": 6682,
      "flawless": 6683,
      "util": 6684,
      "exposed": 6685,
      "clues": 6686,
      "planning": 6687,
      "sticks": 6688,
      "krist": 6689,
      "jaws": 6690,
      "throat": 6691,
      "bie": 6692,
      "dere": 6693,
      "jere": 6694,
      "tc": 6695,
      "xon": 6696,
      "disease": 6697,
      "pretend": 6698,
      "politic": 6699,
      "luckily": 6700,
      "sacrific": 6701,
      "flies": 6702,
      "rics": 6703,
      "ingu": 6704,
      "terior": 6705,
      "attend": 6706,
      "yester": 6707,
      "wallow": 6708,
      "horrendous": 6709,
      "kitch": 6710,
      "chop": 6711,
      "beats": 6712,
      "iments": 6713,
      "huh": 6714,
      "dialogues": 6715,
      "landscape": 6716,
      "elderly": 6717,
      "superficial": 6718,
      "flee": 6719,
      "hou": 6720,
      "roof": 6721,
      "agan": 6722,
      "tea": 6723,
      "careers": 6724,
      "misses": 6725,
      "fancy": 6726,
      "gging": 6727,
      "dealt": 6728,
      "meaningless": 6729,
      "panic": 6730,
      "wallace": 6731,
      "arrested": 6732,
      "divorce": 6733,
      "compassion": 6734,
      "bent": 6735,
      "hardcore": 6736,
      "ggie": 6737,
      "leather": 6738,
      "snip": 6739,
      "13th": 6740,
      "errors": 6741,
      "daring": 6742,
      "jazz": 6743,
      "forbid": 6744,
      "usions": 6745,
      "...)": 6746,
      "generic": 6747,
      "investigate": 6748,
      "commercials": 6749,
      "frustrated": 6750,
      "enemies": 6751,
      "''": 6752,
      "reactions": 6753,
      "ptic": 6754,
      "wondered": 6755,
      "menacing": 6756,
      "spirited": 6757,
      "photographed": 6758,
      "attracted": 6759,
      "requires": 6760,
      "gradually": 6761,
      "evident": 6762,
      "glow": 6763,
      "bean": 6764,
      "astro": 6765,
      "ridiculously": 6766,
      "companion": 6767,
      "hatred": 6768,
      "symbolism": 6769,
      "endearing": 6770,
      "35": 6771,
      "revi": 6772,
      "alt": 6773,
      "noise": 6774,
      "coy": 6775,
      "fulci": 6776,
      "suspicious": 6777,
      "construction": 6778,
      "mars": 6779,
      "pau": 6780,
      "tha": 6781,
      "represents": 6782,
      "diane": 6783,
      "worn": 6784,
      "worried": 6785,
      "interaction": 6786,
      "valley": 6787,
      "genres": 6788,
      "require": 6789,
      "bble": 6790,
      "dal": 6791,
      "lip": 6792,
      "embr": 6793,
      "formed": 6794,
      "2004": 6795,
      "rocks": 6796,
      "photographer": 6797,
      "prisoner": 6798,
      "scientific": 6799,
      "continued": 6800,
      "chicken": 6801,
      "conceived": 6802,
      "currently": 6803,
      "beneath": 6804,
      "advance": 6805,
      "undoubted": 6806,
      "performing": 6807,
      "tones": 6808,
      "airplane": 6809,
      "futur": 6810,
      "depression": 6811,
      "aven": 6812,
      "bine": 6813,
      "iently": 6814,
      "heist": 6815,
      "attached": 6816,
      "differences": 6817,
      "harder": 6818,
      "morality": 6819,
      "styles": 6820,
      "grandmother": 6821,
      "cellu": 6822,
      "argument": 6823,
      "conversations": 6824,
      "baker": 6825,
      "directorial": 6826,
      "splendid": 6827,
      "hmm": 6828,
      "vine": 6829,
      "stir": 6830,
      "accused": 6831,
      "aman": 6832,
      "root": 6833,
      "manhatt": 6834,
      "pleased": 6835,
      "cron": 6836,
      "messages": 6837,
      "freeman": 6838,
      "miserable": 6839,
      "appalling": 6840,
      "orders": 6841,
      "height": 6842,
      "iously": 6843,
      "veness": 6844,
      "1999": 6845,
      "devast": 6846,
      "constructed": 6847,
      "ruthless": 6848,
      "whit": 6849,
      "lime": 6850,
      "bug": 6851,
      "basket": 6852,
      "promin": 6853,
      "sentence": 6854,
      "reynold": 6855,
      "answered": 6856,
      "resolution": 6857,
      "coffee": 6858,
      "adams": 6859,
      "screams": 6860,
      "lav": 6861,
      "angela": 6862,
      "tunes": 6863,
      "threatening": 6864,
      "strictly": 6865,
      "celluloid": 6866,
      "50s": 6867,
      "kish": 6868,
      "rist": 6869,
      "resur": 6870,
      "chaney": 6871,
      "areas": 6872,
      "measure": 6873,
      "displays": 6874,
      "attle": 6875,
      "titan": 6876,
      "easier": 6877,
      "ticket": 6878,
      "souls": 6879,
      "honesty": 6880,
      "exaggerated": 6881,
      "jealous": 6882,
      "bod": 6883,
      "foul": 6884,
      "thunder": 6885,
      "sail": 6886,
      "distance": 6887,
      "historic": 6888,
      "loosely": 6889,
      "ala": 6890,
      "album": 6891,
      "disjoint": 6892,
      "casual": 6893,
      "bullets": 6894,
      "surrounded": 6895,
      "nelson": 6896,
      "doomed": 6897,
      "lang": 6898,
      "modest": 6899,
      "liz": 6900,
      "unwatchable": 6901,
      "ello": 6902,
      "timeless": 6903,
      "spare": 6904,
      "pulling": 6905,
      "admire": 6906,
      "freaks": 6907,
      "taxi": 6908,
      "thumbs": 6909,
      "kurt": 6910,
      "gothic": 6911,
      "aforementioned": 6912,
      "rd": 6913,
      "webs": 6914,
      "ellen": 6915,
      "phony": 6916,
      "worthless": 6917,
      "pressure": 6918,
      "nett": 6919,
      "squad": 6920,
      "streep": 6921,
      "mall": 6922,
      "threw": 6923,
      "anded": 6924,
      "dee": 6925,
      "scors": 6926,
      "comics": 6927,
      "estate": 6928,
      "quer": 6929,
      "blank": 6930,
      "cared": 6931,
      "breed": 6932,
      "kubrick": 6933,
      "occurred": 6934,
      "agreed": 6935,
      "honey": 6936,
      "leo": 6937,
      "whis": 6938,
      "anyways": 6939,
      "giallo": 6940,
      "ensible": 6941,
      "trio": 6942,
      "rubber": 6943,
      "laws": 6944,
      "decisions": 6945,
      "settling": 6946,
      "isolated": 6947,
      "trained": 6948,
      "escaped": 6949,
      "achievement": 6950,
      "philosophy": 6951,
      "derek": 6952,
      "manhattan": 6953,
      "cards": 6954,
      "chances": 6955,
      "wives": 6956,
      "props": 6957,
      "offended": 6958,
      "nail": 6959,
      "swear": 6960,
      "jewel": 6961,
      "collabor": 6962,
      "fingers": 6963,
      "eighties": 6964,
      "demands": 6965,
      "corporate": 6966,
      "lers": 6967,
      "infect": 6968,
      "lean": 6969,
      "robe": 6970,
      "fears": 6971,
      "leton": 6972,
      "detailed": 6973,
      "popcorn": 6974,
      "scorsese": 6975,
      "elo": 6976,
      "orches": 6977,
      "blend": 6978,
      "kidding": 6979,
      "nah": 6980,
      "superbly": 6981,
      "drops": 6982,
      "nas": 6983,
      "vit": 6984,
      "outcome": 6985,
      "goo": 6986,
      "xture": 6987,
      "damme": 6988,
      "primarily": 6989,
      "ironically": 6990,
      "cried": 6991,
      "rural": 6992,
      "wag": 6993,
      "gol": 6994,
      "blues": 6995,
      "stark": 6996,
      "subjects": 6997,
      "1940": 6998,
      "absence": 6999,
      "tube": 7000,
      "robots": 7001,
      "yellow": 7002,
      "undoubtedly": 7003,
      "reynolds": 7004,
      "gimm": 7005,
      "lic": 7006,
      "isra": 7007,
      "wig": 7008,
      "goers": 7009,
      "neu": 7010,
      "uded": 7011,
      "sadness": 7012,
      "explore": 7013,
      "brains": 7014,
      "recorded": 7015,
      "reaches": 7016,
      "kitchen": 7017,
      "hick": 7018,
      "orphan": 7019,
      "butch": 7020,
      "istically": 7021,
      "burg": 7022,
      "sloppy": 7023,
      "warrior": 7024,
      "disjointed": 7025,
      "tel": 7026,
      "err": 7027,
      "icy": 7028,
      "ifying": 7029,
      "distant": 7030,
      "confident": 7031,
      "explored": 7032,
      "vengeance": 7033,
      "birds": 7034,
      "glasses": 7035,
      "lifestyle": 7036,
      "implausible": 7037,
      "fru": 7038,
      "grain": 7039,
      "raising": 7040,
      "temper": 7041,
      "annie": 7042,
      "reduced": 7043,
      "(..": 7044,
      "kil": 7045,
      "tank": 7046,
      "atom": 7047,
      "devi": 7048,
      "foc": 7049,
      "pran": 7050,
      "matth": 7051,
      "roller": 7052,
      "communist": 7053,
      "defense": 7054,
      "washed": 7055,
      "robinson": 7056,
      "stinker": 7057,
      "bc": 7058,
      "encies": 7059,
      "decess": 7060,
      "predecess": 7061,
      "ireland": 7062,
      "parad": 7063,
      "hopkins": 7064,
      "nearby": 7065,
      "discussion": 7066,
      "musc": 7067,
      "quent": 7068,
      "loads": 7069,
      "loaded": 7070,
      "bourne": 7071,
      "specifically": 7072,
      "mour": 7073,
      "vall": 7074,
      "asha": 7075,
      "arc": 7076,
      "wont": 7077,
      "skull": 7078,
      "facing": 7079,
      "contrary": 7080,
      "recognition": 7081,
      "distracting": 7082,
      "eries": 7083,
      "redi": 7084,
      "heim": 7085,
      "1930": 7086,
      "forms": 7087,
      "tracks": 7088,
      "gangsters": 7089,
      "models": 7090,
      "jeremy": 7091,
      "kn": 7092,
      "cameras": 7093,
      "scores": 7094,
      "biography": 7095,
      "gimmick": 7096,
      "devoid": 7097,
      "notably": 7098,
      "polish": 7099,
      "concerning": 7100,
      "executive": 7101,
      "weather": 7102,
      "clumsy": 7103,
      "argen": 7104,
      "scot": 7105,
      "meg": 7106,
      "idy": 7107,
      "duo": 7108,
      "delivering": 7109,
      "1930s": 7110,
      "intrigue": 7111,
      "curtis": 7112,
      "elaborate": 7113,
      "yr": 7114,
      "incoherent": 7115,
      "alfred": 7116,
      "assem": 7117,
      "leigh": 7118,
      "bever": 7119,
      "strangers": 7120,
      "complaint": 7121,
      "bathroom": 7122,
      "captivating": 7123,
      "installment": 7124,
      "stall": 7125,
      "christie": 7126,
      "retro": 7127,
      "draws": 7128,
      "agrees": 7129,
      "adoles": 7130,
      "ilted": 7131,
      "roth": 7132,
      "illian": 7133,
      "staying": 7134,
      "inventive": 7135,
      "alternative": 7136,
      "diamond": 7137,
      "mason": 7138,
      "edly": 7139,
      "illegal": 7140,
      "defe": 7141,
      "warren": 7142,
      "glamor": 7143,
      "classical": 7144,
      "tonight": 7145,
      "hopper": 7146,
      "melan": 7147,
      "1960": 7148,
      "receive": 7149,
      "russia": 7150,
      "pushed": 7151,
      "harrison": 7152,
      "griffith": 7153,
      "ingredi": 7154,
      "supre": 7155,
      "odds": 7156,
      "shining": 7157,
      "spain": 7158,
      "raid": 7159,
      "humili": 7160,
      "regul": 7161,
      "earned": 7162,
      "contained": 7163,
      "sales": 7164,
      "furthermore": 7165,
      "proceedings": 7166,
      "reflection": 7167,
      "financial": 7168,
      "aspir": 7169,
      "simil": 7170,
      "empath": 7171,
      "2003": 7172,
      "subtlety": 7173,
      "chaos": 7174,
      "juvenile": 7175,
      "awe": 7176,
      "forgiven": 7177,
      "illness": 7178,
      "urge": 7179,
      "cot": 7180,
      "menace": 7181,
      "harvey": 7182,
      "promised": 7183,
      "savage": 7184,
      "90s": 7185,
      "dil": 7186,
      "doz": 7187,
      "affl": 7188,
      "carn": 7189,
      "gerald": 7190,
      "planes": 7191,
      "explaining": 7192,
      "sensu": 7193,
      "1980s": 7194,
      "respond": 7195,
      "bronson": 7196,
      "argento": 7197,
      "bass": 7198,
      "iveness": 7199,
      "lips": 7200,
      "unoriginal": 7201,
      "negle": 7202,
      "overdone": 7203,
      "partly": 7204,
      "motives": 7205,
      "legit": 7206,
      "psychotic": 7207,
      "grotes": 7208,
      "influenced": 7209,
      "laurel": 7210,
      "udge": 7211,
      "visions": 7212,
      "masters": 7213,
      "miike": 7214,
      "aimed": 7215,
      "opinions": 7216,
      "depressed": 7217,
      "passionate": 7218,
      "devoted": 7219,
      "--------": 7220,
      "deliberately": 7221,
      "cigaret": 7222,
      "dignity": 7223,
      "philosophical": 7224,
      "titanic": 7225,
      "burned": 7226,
      "darker": 7227,
      "dynamic": 7228,
      "benefit": 7229,
      "enormous": 7230,
      "oscars": 7231,
      "walken": 7232,
      "hilariously": 7233,
      "disturbed": 7234,
      "apocalypse": 7235,
      "helicopter": 7236,
      "rust": 7237,
      "psis": 7238,
      "syno": 7239,
      "rising": 7240,
      "instant": 7241,
      "recognized": 7242,
      "winds": 7243,
      "plate": 7244,
      "acknow": 7245,
      "smaller": 7246,
      "louise": 7247,
      "mistress": 7248,
      "matched": 7249,
      "barrymore": 7250,
      "similarly": 7251,
      "repul": 7252,
      "asia": 7253,
      "dian": 7254,
      "plum": 7255,
      "centered": 7256,
      "mayor": 7257,
      "mixture": 7258,
      "shiel": 7259,
      "andrews": 7260,
      "involvement": 7261,
      "')": 7262,
      "kor": 7263,
      "mand": 7264,
      "impro": 7265,
      "hoo": 7266,
      "composed": 7267,
      "traff": 7268,
      "shan": 7269,
      "goodness": 7270,
      "writes": 7271,
      "clothing": 7272,
      "solution": 7273,
      "jesse": 7274,
      "francisco": 7275,
      "\";": 7276,
      "dating": 7277,
      "daddy": 7278,
      "hates": 7279,
      "adul": 7280,
      "filling": 7281,
      "distingu": 7282,
      "oses": 7283,
      "vulgar": 7284,
      "scope": 7285,
      "unfolds": 7286,
      "cinder": 7287,
      "notion": 7288,
      "cannon": 7289,
      "strang": 7290,
      "explosion": 7291,
      "trees": 7292,
      "seventies": 7293,
      "ibly": 7294,
      "itudes": 7295,
      "decor": 7296,
      "compo": 7297,
      "cox": 7298,
      "artific": 7299,
      "carrey": 7300,
      "thoughtful": 7301,
      "couples": 7302,
      "slightest": 7303,
      "potentially": 7304,
      "square": 7305,
      "intrigued": 7306,
      "progresses": 7307,
      "lifting": 7308,
      "blatant": 7309,
      "nell": 7310,
      "encing": 7311,
      "verted": 7312,
      "nee": 7313,
      "nervous": 7314,
      "airport": 7315,
      "secretary": 7316,
      "primary": 7317,
      "scheme": 7318,
      "victoria": 7319,
      "rug": 7320,
      "livan": 7321,
      "bye": 7322,
      "eves": 7323,
      "myers": 7324,
      "raises": 7325,
      "murderous": 7326,
      "developing": 7327,
      "cinematographer": 7328,
      "sandra": 7329,
      "alexander": 7330,
      "abysm": 7331,
      "kh": 7332,
      "mtv": 7333,
      "ctive": 7334,
      "guests": 7335,
      "romero": 7336,
      "amazon": 7337,
      "defend": 7338,
      "psychopath": 7339,
      "margaret": 7340,
      "cun": 7341,
      "ril": 7342,
      "inch": 7343,
      "improved": 7344,
      "suited": 7345,
      "izable": 7346,
      "sidney": 7347,
      "failing": 7348,
      "delicious": 7349,
      "reached": 7350,
      "practice": 7351,
      "discuss": 7352,
      "innovative": 7353,
      "\"-": 7354,
      "cingly": 7355,
      "ras": 7356,
      "inhabit": 7357,
      "onna": 7358,
      "igner": 7359,
      "creativity": 7360,
      "sullivan": 7361,
      "similarities": 7362,
      "arrival": 7363,
      "campa": 7364,
      "resemblance": 7365,
      "segments": 7366,
      "poetry": 7367,
      "arrogant": 7368,
      "graham": 7369,
      "synopsis": 7370,
      "bones": 7371,
      "ental": 7372,
      "amuse": 7373,
      "visiting": 7374,
      "endings": 7375,
      "dimension": 7376,
      "trailers": 7377,
      "gloss": 7378,
      "consistently": 7379,
      "frustrating": 7380,
      "phantom": 7381,
      "bernard": 7382,
      "unbearable": 7383,
      "geo": 7384,
      "settle": 7385,
      "compli": 7386,
      "wax": 7387,
      "namely": 7388,
      "gregory": 7389,
      "choreography": 7390,
      "yesterday": 7391,
      "kers": 7392,
      "rer": 7393,
      "sume": 7394,
      "spon": 7395,
      "guitar": 7396,
      "emper": 7397,
      "twel": 7398,
      "garner": 7399,
      "global": 7400,
      "doro": 7401,
      "june": 7402,
      "cassave": 7403,
      "translation": 7404,
      "dwar": 7405,
      "eff": 7406,
      "lur": 7407,
      "smar": 7408,
      "inane": 7409,
      "stellar": 7410,
      "vies": 7411,
      "uneven": 7412,
      "poll": 7413,
      "connor": 7414,
      "convol": 7415,
      "bleed": 7416,
      "lotte": 7417,
      "eastern": 7418,
      "confid": 7419,
      "2002": 7420,
      "damage": 7421,
      "movements": 7422,
      "commented": 7423,
      "equip": 7424,
      "mesmer": 7425,
      "shelf": 7426,
      "candid": 7427,
      "dinosaurs": 7428,
      "taught": 7429,
      "zor": 7430,
      "lyrics": 7431,
      "bearing": 7432,
      "icon": 7433,
      "tee": 7434,
      "pros": 7435,
      "enjoys": 7436,
      "ginger": 7437,
      "watson": 7438,
      "incidentally": 7439,
      "climactic": 7440,
      "stooges": 7441,
      "phrase": 7442,
      "inse": 7443,
      "rex": 7444,
      "aggress": 7445,
      "rah": 7446,
      "blake": 7447,
      "temple": 7448,
      "operation": 7449,
      "education": 7450,
      "convincingly": 7451,
      "sung": 7452,
      "kicked": 7453,
      "thal": 7454,
      "bee": 7455,
      "neth": 7456,
      "prey": 7457,
      "buddies": 7458,
      "elimin": 7459,
      "jews": 7460,
      "ears": 7461,
      "nause": 7462,
      "illy": 7463,
      "mos": 7464,
      "illusion": 7465,
      "boob": 7466,
      "izations": 7467,
      "aneously": 7468,
      "2007": 7469,
      "pays": 7470,
      "suggested": 7471,
      "collap": 7472,
      "bite": 7473,
      "cd": 7474,
      "assum": 7475,
      "orange": 7476,
      "elic": 7477,
      "manuel": 7478,
      "exotic": 7479,
      "species": 7480,
      "performer": 7481,
      "useful": 7482,
      "niro": 7483,
      "purchase": 7484,
      "buildings": 7485,
      "judging": 7486,
      "yawn": 7487,
      "transformation": 7488,
      "pump": 7489,
      "charlotte": 7490,
      "guards": 7491,
      "slave": 7492,
      "luc": 7493,
      "towns": 7494,
      "promises": 7495,
      "imagined": 7496,
      "immort": 7497,
      "solely": 7498,
      "cinderella": 7499,
      "tomorrow": 7500,
      "keith": 7501,
      "secondly": 7502,
      "engross": 7503,
      "exploit": 7504,
      "1990": 7505,
      "amounts": 7506,
      "dedicated": 7507,
      "frequent": 7508,
      "dorothy": 7509,
      "3rd": 7510,
      "vegas": 7511,
      "marked": 7512,
      "parties": 7513,
      "chronic": 7514,
      "jordan": 7515,
      "mitchum": 7516,
      "jenny": 7517,
      "parallel": 7518,
      "simplistic": 7519,
      "aes": 7520,
      "zi": 7521,
      "roe": 7522,
      "unintentional": 7523,
      "eva": 7524,
      "pretending": 7525,
      "highest": 7526,
      "copies": 7527,
      "cruci": 7528,
      "suitable": 7529,
      "celebrity": 7530,
      "bates": 7531,
      "uable": 7532,
      "iring": 7533,
      "sounding": 7534,
      "logically": 7535,
      "chapter": 7536,
      "accompanied": 7537,
      "grotesque": 7538,
      "gad": 7539,
      "tier": 7540,
      "thet": 7541,
      "rec": 7542,
      "reed": 7543,
      "maggie": 7544,
      "eston": 7545,
      "splatter": 7546,
      "swimming": 7547,
      "enberg": 7548,
      "wrapped": 7549,
      "balanced": 7550,
      "bott": 7551,
      "teaching": 7552,
      "contract": 7553,
      "bonus": 7554,
      "shirley": 7555,
      "poetic": 7556,
      "whim": 7557,
      "persu": 7558,
      "wore": 7559,
      "cream": 7560,
      "steel": 7561,
      "limits": 7562,
      "channels": 7563,
      "fooled": 7564,
      "witnessed": 7565,
      "remarkably": 7566,
      "succeeded": 7567,
      "employe": 7568,
      "houses": 7569,
      "equipment": 7570,
      "lance": 7571,
      "rud": 7572,
      "randy": 7573,
      "ani": 7574,
      "rier": 7575,
      "nathan": 7576,
      "gged": 7577,
      "judy": 7578,
      "rita": 7579,
      "comparing": 7580,
      "pson": 7581,
      "invasion": 7582,
      "ruins": 7583,
      "shake": 7584,
      "profession": 7585,
      "responsibility": 7586,
      "formulaic": 7587,
      "challenging": 7588,
      "hypnot": 7589,
      "matthau": 7590,
      "campaign": 7591,
      "convoluted": 7592,
      "sits": 7593,
      "recru": 7594,
      "irrelevant": 7595,
      "coat": 7596,
      "pric": 7597,
      "mario": 7598,
      "drill": 7599,
      "understandable": 7600,
      "latin": 7601,
      "principal": 7602,
      "website": 7603,
      "rational": 7604,
      "errol": 7605,
      "tower": 7606,
      "edition": 7607,
      "butler": 7608,
      "trum": 7609,
      "exchange": 7610,
      "pert": 7611,
      "rath": 7612,
      "brat": 7613,
      "mons": 7614,
      "kicking": 7615,
      "brutally": 7616,
      "pushing": 7617,
      "fetched": 7618,
      "vise": 7619,
      "displayed": 7620,
      "serge": 7621,
      "despair": 7622,
      "downhill": 7623,
      "barrel": 7624,
      "kidnap": 7625,
      "nightmares": 7626,
      "citizens": 7627,
      "psychiatrist": 7628,
      "andal": 7629,
      "vie": 7630,
      "kell": 7631,
      "abdu": 7632,
      "preced": 7633,
      "monot": 7634,
      "boxing": 7635,
      "survived": 7636,
      "catching": 7637,
      "baldwin": 7638,
      "wacky": 7639,
      "tcm": 7640,
      "dozens": 7641,
      "echo": 7642,
      "gur": 7643,
      "tame": 7644,
      "republic": 7645,
      "enchant": 7646,
      "quinn": 7647,
      "spike": 7648,
      "persons": 7649,
      "existed": 7650,
      "journalist": 7651,
      "mup": 7652,
      "oid": 7653,
      "swi": 7654,
      "ule": 7655,
      "wizard": 7656,
      "excruci": 7657,
      "joined": 7658,
      "obli": 7659,
      "pola": 7660,
      "slice": 7661,
      "defined": 7662,
      "punishment": 7663,
      "resolved": 7664,
      "rabbit": 7665,
      "nt": 7666,
      "quit": 7667,
      "observ": 7668,
      "contrad": 7669,
      "stinks": 7670,
      "rants": 7671,
      "lifel": 7672,
      "fantas": 7673,
      "introduces": 7674,
      "civilization": 7675,
      "adorable": 7676,
      "hughes": 7677,
      "excruciating": 7678,
      "wen": 7679,
      "encour": 7680,
      "characteristic": 7681,
      "colin": 7682,
      "bargain": 7683,
      "painted": 7684,
      "sweep": 7685,
      "bottle": 7686,
      "nomination": 7687,
      "tact": 7688,
      "ela": 7689,
      "endure": 7690,
      "describes": 7691,
      "hed": 7692,
      "hut": 7693,
      "retain": 7694,
      "relies": 7695,
      "represented": 7696,
      "asto": 7697,
      "troma": 7698,
      "backs": 7699,
      "addict": 7700,
      "compens": 7701,
      "photograph": 7702,
      "equival": 7703,
      "crucial": 7704,
      "arrived": 7705,
      "wrestling": 7706,
      "rag": 7707,
      "lift": 7708,
      "august": 7709,
      "fried": 7710,
      "correctly": 7711,
      "transc": 7712,
      "montage": 7713,
      "proceeds": 7714,
      "priceless": 7715,
      "daf": 7716,
      "dile": 7717,
      "hank": 7718,
      "alley": 7719,
      "alert": 7720,
      "mankind": 7721,
      "shor": 7722,
      "justify": 7723,
      "cancer": 7724,
      "rail": 7725,
      "servant": 7726,
      "ava": 7727,
      "depicts": 7728,
      "biased": 7729,
      "countryside": 7730,
      "raymond": 7731,
      "historically": 7732,
      "drawing": 7733,
      "safety": 7734,
      "beverly": 7735,
      "twelve": 7736,
      "rang": 7737,
      "static": 7738,
      "abort": 7739,
      "cope": 7740,
      "feld": 7741,
      "snakes": 7742,
      "austin": 7743,
      "gabri": 7744,
      "emperor": 7745,
      "juni": 7746,
      "pom": 7747,
      "rats": 7748,
      "uh": 7749,
      "sustain": 7750,
      "fundam": 7751,
      "understated": 7752,
      "optim": 7753,
      "staring": 7754,
      "glenn": 7755,
      "judg": 7756,
      "recognizable": 7757,
      "thompson": 7758,
      "rotten": 7759,
      "____": 7760,
      "incompetent": 7761,
      "preview": 7762,
      "guin": 7763,
      "newly": 7764,
      "heading": 7765,
      "dolls": 7766,
      "hideous": 7767,
      "educated": 7768,
      "pearl": 7769,
      "inappropriate": 7770,
      "tribe": 7771,
      "lacklust": 7772,
      "covering": 7773,
      "considerable": 7774,
      "banned": 7775,
      "dropping": 7776,
      "hollow": 7777,
      "babe": 7778,
      "trashy": 7779,
      "chamber": 7780,
      "caut": 7781,
      "fisher": 7782,
      "reunion": 7783,
      "imperson": 7784,
      "rope": 7785,
      "diana": 7786,
      "blond": 7787,
      "corman": 7788,
      "helpless": 7789,
      "nails": 7790,
      "prize": 7791,
      "madonna": 7792,
      "hanks": 7793,
      "senses": 7794,
      "1960s": 7795,
      "quisite": 7796,
      "legitim": 7797,
      "ilton": 7798,
      "absent": 7799,
      "neo": 7800,
      "attitudes": 7801,
      "alongside": 7802,
      "????": 7803,
      "rupted": 7804,
      "employed": 7805,
      "revolutionary": 7806,
      "abysmal": 7807,
      "gers": 7808,
      "react": 7809,
      "grind": 7810,
      "marc": 7811,
      "slum": 7812,
      "resulting": 7813,
      "asylum": 7814,
      "commander": 7815,
      "advertising": 7816,
      "museum": 7817,
      "bson": 7818,
      "wrench": 7819,
      "enger": 7820,
      "rocket": 7821,
      "geek": 7822,
      "manu": 7823,
      "seeks": 7824,
      "desired": 7825,
      "vocal": 7826,
      "closet": 7827,
      "satir": 7828,
      "sleaze": 7829,
      "homic": 7830,
      "fluff": 7831,
      "colonel": 7832,
      "inferior": 7833,
      "riveting": 7834,
      "\"!": 7835,
      "ox": 7836,
      "pha": 7837,
      "thugs": 7838,
      "tooth": 7839,
      "homeless": 7840,
      "flop": 7841,
      "overwhelming": 7842,
      "guided": 7843,
      "och": 7844,
      "pete": 7845,
      "disappeared": 7846,
      "underlying": 7847,
      "boris": 7848,
      "classes": 7849,
      "archite": 7850,
      "circle": 7851,
      "recording": 7852,
      "spread": 7853,
      "conservative": 7854,
      "bump": 7855,
      "nuts": 7856,
      "tered": 7857,
      "aux": 7858,
      "prepar": 7859,
      "spag": 7860,
      "rav": 7861,
      "lowest": 7862,
      "accuracy": 7863,
      "brando": 7864,
      "wounded": 7865,
      "gom": 7866,
      "sappy": 7867,
      "wend": 7868,
      "unsettling": 7869,
      "wells": 7870,
      "disappear": 7871,
      "junior": 7872,
      "cens": 7873,
      "rice": 7874,
      "forty": 7875,
      "amanda": 7876,
      "feast": 7877,
      "indic": 7878,
      "drey": 7879,
      "treats": 7880,
      "virginia": 7881,
      "nostalgia": 7882,
      "daniels": 7883,
      "hatch": 7884,
      "icion": 7885,
      "overrated": 7886,
      "awake": 7887,
      "oph": 7888,
      "gery": 7889,
      "doug": 7890,
      "patric": 7891,
      "scarecrow": 7892,
      "ignorant": 7893,
      "dwarf": 7894,
      "jas": 7895,
      "vom": 7896,
      "inf": 7897,
      "defeat": 7898,
      "akin": 7899,
      "duvall": 7900,
      "horrifying": 7901,
      "simult": 7902,
      "careful": 7903,
      "conditions": 7904,
      "generated": 7905,
      "casts": 7906,
      "catches": 7907,
      "cleverly": 7908,
      "eaten": 7909,
      "wink": 7910,
      "arian": 7911,
      "idal": 7912,
      "wrap": 7913,
      "hyper": 7914,
      "chron": 7915,
      "masterful": 7916,
      "respected": 7917,
      "dirt": 7918,
      "buffs": 7919,
      "leonard": 7920,
      "vaguely": 7921,
      "nostalgic": 7922,
      "immensely": 7923,
      "kum": 7924,
      "wagon": 7925,
      "yn": 7926,
      "infl": 7927,
      "acies": 7928,
      "vial": 7929,
      "amid": 7930,
      "deaf": 7931,
      "scoo": 7932,
      "grass": 7933,
      "directs": 7934,
      "turkish": 7935,
      "monk": 7936,
      "spoke": 7937,
      "bedroom": 7938,
      "pitiful": 7939,
      "wealth": 7940,
      "fought": 7941,
      "hints": 7942,
      "ernest": 7943,
      "pee": 7944,
      "grasp": 7945,
      "berlin": 7946,
      "cheating": 7947,
      "triangle": 7948,
      "senseless": 7949,
      "terminator": 7950,
      "route": 7951,
      "alternate": 7952,
      "astron": 7953,
      "altman": 7954,
      "pals": 7955,
      "rr": 7956,
      "bela": 7957,
      "tering": 7958,
      "nyc": 7959,
      "carrad": 7960,
      "leaders": 7961,
      "hench": 7962,
      "psychic": 7963,
      "foolish": 7964,
      "corruption": 7965,
      "composer": 7966,
      "stilted": 7967,
      "une": 7968,
      "blew": 7969,
      "offs": 7970,
      "steam": 7971,
      "kingdom": 7972,
      "hamilton": 7973,
      "possibilities": 7974,
      "regarded": 7975,
      "stevens": 7976,
      "motivations": 7977,
      "coff": 7978,
      "estic": 7979,
      "coward": 7980,
      "overacting": 7981,
      "samura": 7982,
      "marketing": 7983,
      "carradine": 7984,
      "bou": 7985,
      "imo": 7986,
      "ika": 7987,
      "online": 7988,
      "quin": 7989,
      "mentioning": 7990,
      "nicole": 7991,
      "embarrassment": 7992,
      "choreographed": 7993,
      "hetti": 7994,
      "elegant": 7995,
      "cassavetes": 7996,
      "leck": 7997,
      "mod": 7998,
      "kee": 7999,
      "artic": 8000,
      "shore": 8001,
      "dys": 8002,
      "weakest": 8003,
      "avoided": 8004,
      "doctors": 8005,
      "democr": 8006,
      "equivalent": 8007,
      "wire": 8008,
      "hostage": 8009,
      "perry": 8010,
      "centers": 8011,
      "cheated": 8012,
      "objects": 8013,
      "clos": 8014,
      "capturing": 8015,
      "twil": 8016,
      "dances": 8017,
      "concern": 8018,
      "discovering": 8019,
      "kuro": 8020,
      "substit": 8021,
      "behaviour": 8022,
      "artificial": 8023,
      ")...": 8024,
      "opp": 8025,
      "pops": 8026,
      "polar": 8027,
      "puzzle": 8028,
      "twilight": 8029,
      "wong": 8030,
      "incompreh": 8031,
      "enlight": 8032,
      "roots": 8033,
      "cancel": 8034,
      "valuable": 8035,
      "volta": 8036,
      "samuel": 8037,
      "nicholson": 8038,
      "vulnerable": 8039,
      "futuristic": 8040,
      "focusing": 8041,
      "adolescent": 8042,
      "jur": 8043,
      "wine": 8044,
      "attor": 8045,
      "vell": 8046,
      "boll": 8047,
      "tripe": 8048,
      "smack": 8049,
      "norma": 8050,
      "rude": 8051,
      "cusack": 8052,
      "wished": 8053,
      "austen": 8054,
      "receives": 8055,
      "micro": 8056,
      "appropriately": 8057,
      "arguably": 8058,
      "hesit": 8059,
      "emphasis": 8060,
      "swallow": 8061,
      "tends": 8062,
      "tuck": 8063,
      "ardo": 8064,
      "aristo": 8065,
      "grate": 8066,
      "greatness": 8067,
      "peoples": 8068,
      "carrie": 8069,
      "controlled": 8070,
      "guessed": 8071,
      "itors": 8072,
      "mountains": 8073,
      "functional": 8074,
      "tiresome": 8075,
      "attorney": 8076,
      "vas": 8077,
      "reno": 8078,
      "stable": 8079,
      "moody": 8080,
      "disappears": 8081,
      "thru": 8082,
      "lux": 8083,
      "generations": 8084,
      "hamlet": 8085,
      "refu": 8086,
      "antonio": 8087,
      "neuro": 8088,
      "fay": 8089,
      "tracy": 8090,
      "urity": 8091,
      "obtain": 8092,
      "runner": 8093,
      "racing": 8094,
      "popularity": 8095,
      "sherlock": 8096,
      "remained": 8097,
      "employ": 8098,
      "lifted": 8099,
      "patience": 8100,
      "spaghetti": 8101,
      "cue": 8102,
      "wart": 8103,
      "versus": 8104,
      "whats": 8105,
      "moreover": 8106,
      "showcase": 8107,
      "comedians": 8108,
      "owned": 8109,
      "transition": 8110,
      "surviving": 8111,
      "aids": 8112,
      "ritual": 8113,
      "narrow": 8114,
      "closest": 8115,
      "dod": 8116,
      "joins": 8117,
      "natal": 8118,
      "sixt": 8119,
      "austro": 8120,
      "dressing": 8121,
      "beliefs": 8122,
      "bunny": 8123,
      "architect": 8124,
      "consu": 8125,
      "gra": 8126,
      "hara": 8127,
      "label": 8128,
      "waited": 8129,
      "pattern": 8130,
      "checked": 8131,
      "authority": 8132,
      "tastes": 8133,
      "clueless": 8134,
      "dilem": 8135,
      "lately": 8136,
      "toys": 8137,
      "topless": 8138,
      "leans": 8139,
      "advise": 8140,
      "wides": 8141,
      "sue": 8142,
      "apt": 8143,
      "plag": 8144,
      "laughably": 8145,
      "travest": 8146,
      "greed": 8147,
      "desperation": 8148,
      "jeffrey": 8149,
      "sixties": 8150,
      "mack": 8151,
      "sill": 8152,
      "sale": 8153,
      "abomin": 8154,
      "urb": 8155,
      "exquisite": 8156,
      "realizing": 8157,
      "carey": 8158,
      "secondary": 8159,
      "bands": 8160,
      "crocod": 8161,
      "enterprise": 8162,
      "gifted": 8163,
      "confrontation": 8164,
      "incest": 8165,
      "bau": 8166,
      "ement": 8167,
      "hl": 8168,
      "pill": 8169,
      "belly": 8170,
      "acious": 8171,
      "keen": 8172,
      "poke": 8173,
      "condem": 8174,
      "quotes": 8175,
      "claustro": 8176,
      "idel": 8177,
      "ctions": 8178,
      "invited": 8179,
      "flood": 8180,
      "1995": 8181,
      "bruno": 8182,
      "timo": 8183,
      "glorious": 8184,
      "alcoholic": 8185,
      "assigned": 8186,
      "florida": 8187,
      "claustropho": 8188,
      "andro": 8189,
      "elvis": 8190,
      "combine": 8191,
      "antagon": 8192,
      "faults": 8193,
      "angst": 8194,
      "ridden": 8195,
      "garbo": 8196,
      "spirits": 8197,
      "floating": 8198,
      "sensational": 8199,
      "assuming": 8200,
      "ingredients": 8201,
      ",,": 8202,
      "==": 8203,
      "kris": 8204,
      "tang": 8205,
      "recycl": 8206,
      "issa": 8207,
      "nod": 8208,
      "likewise": 8209,
      "agenda": 8210,
      "mins": 8211,
      "19th": 8212,
      "bitch": 8213,
      "passable": 8214,
      "exceptionally": 8215,
      "frustration": 8216,
      "demanding": 8217,
      "severely": 8218,
      "hound": 8219,
      "devices": 8220,
      "weir": 8221,
      "otion": 8222,
      "visits": 8223,
      "costello": 8224,
      "backgrounds": 8225,
      "flir": 8226,
      "ensues": 8227,
      "inducing": 8228,
      "samurai": 8229,
      "dill": 8230,
      "lens": 8231,
      "enh": 8232,
      "therap": 8233,
      "conan": 8234,
      "1968": 8235,
      "healthy": 8236,
      "uated": 8237,
      "zes": 8238,
      "insur": 8239,
      "riot": 8240,
      "apple": 8241,
      "plat": 8242,
      "inda": 8243,
      "misery": 8244,
      "voiced": 8245,
      "subplots": 8246,
      "travolta": 8247,
      "wishing": 8248,
      "policeman": 8249,
      "questionable": 8250,
      "slip": 8251,
      "representation": 8252,
      "pard": 8253,
      "plight": 8254,
      "anor": 8255,
      "aled": 8256,
      "illogical": 8257,
      "butter": 8258,
      "pling": 8259,
      "arty": 8260,
      "showdown": 8261,
      "viewings": 8262,
      "smiling": 8263,
      "letters": 8264,
      "lasting": 8265,
      "pursuit": 8266,
      "milk": 8267,
      "1972": 8268,
      "hurts": 8269,
      "warmth": 8270,
      "scarlett": 8271,
      "confidence": 8272,
      "wandering": 8273,
      "zzy": 8274,
      "aron": 8275,
      "chen": 8276,
      "behave": 8277,
      "vibr": 8278,
      "ulate": 8279,
      "fever": 8280,
      "rolls": 8281,
      "fires": 8282,
      "satisfy": 8283,
      "jacob": 8284,
      "timothy": 8285,
      "-)": 8286,
      "xx": 8287,
      "thread": 8288,
      "edgar": 8289,
      "clip": 8290,
      "kyle": 8291,
      "1997": 8292,
      "property": 8293,
      "substant": 8294,
      "www": 8295,
      "demonstrates": 8296,
      "oe": 8297,
      "ranger": 8298,
      "isy": 8299,
      "implic": 8300,
      "files": 8301,
      "abc": 8302,
      "visited": 8303,
      "relations": 8304,
      "differently": 8305,
      "household": 8306,
      "mysteries": 8307,
      "zeal": 8308,
      "matches": 8309,
      "boarding": 8310,
      "rendition": 8311,
      "intimate": 8312,
      "astonishing": 8313,
      "hippie": 8314,
      "mundane": 8315,
      "sep": 8316,
      "unfair": 8317,
      "eliness": 8318,
      "crazed": 8319,
      "schlock": 8320,
      "billed": 8321,
      "appreciation": 8322,
      "mutant": 8323,
      "nicholas": 8324,
      "supreme": 8325,
      "yell": 8326,
      "fem": 8327,
      "consequ": 8328,
      "deriv": 8329,
      "martha": 8330,
      "insanity": 8331,
      "sawa": 8332,
      "meryl": 8333,
      "waves": 8334,
      "sunshine": 8335,
      "sched": 8336,
      "adaptations": 8337,
      "conflicts": 8338,
      "troops": 8339,
      "cracking": 8340,
      "puppets": 8341,
      "inevit": 8342,
      "seed": 8343,
      "scrap": 8344,
      "marion": 8345,
      "surf": 8346,
      "tomb": 8347,
      "summar": 8348,
      "betrayal": 8349,
      "ponder": 8350,
      "pages": 8351,
      "wret": 8352,
      "inject": 8353,
      "imitation": 8354,
      "haired": 8355,
      "bloom": 8356,
      "dealer": 8357,
      "1979": 8358,
      "occasions": 8359,
      "minimum": 8360,
      "forbidden": 8361,
      "?'": 8362,
      "dale": 8363,
      "theart": 8364,
      "acid": 8365,
      "acles": 8366,
      "diet": 8367,
      "framed": 8368,
      "mayhem": 8369,
      "norris": 8370,
      "frankie": 8371,
      "beatles": 8372,
      "claiming": 8373,
      "wildly": 8374,
      "investigating": 8375,
      "olivia": 8376,
      "experimental": 8377,
      "guarantee": 8378,
      "gel": 8379,
      "kent": 8380,
      "isha": 8381,
      "acity": 8382,
      "forcing": 8383,
      "unhappy": 8384,
      "haust": 8385,
      "exhaust": 8386,
      "flair": 8387,
      "fined": 8388,
      "strings": 8389,
      "depicting": 8390,
      "bombs": 8391,
      "fifty": 8392,
      "accomplish": 8393,
      "lemmon": 8394,
      "indulgent": 8395,
      "phillip": 8396,
      "cunning": 8397,
      "travesty": 8398,
      "oured": 8399,
      "seld": 8400,
      "adri": 8401,
      "ros": 8402,
      "hokey": 8403,
      "expo": 8404,
      "perce": 8405,
      "provoc": 8406,
      "joel": 8407,
      "desires": 8408,
      "polished": 8409,
      "literature": 8410,
      "faster": 8411,
      "witnesses": 8412,
      "chicks": 8413,
      "bridges": 8414,
      "bumbling": 8415,
      "exorcist": 8416,
      "saga": 8417,
      "holland": 8418,
      "traffic": 8419,
      "roc": 8420,
      "unpredictable": 8421,
      "compet": 8422,
      "justin": 8423,
      "awak": 8424,
      "marx": 8425,
      "romp": 8426,
      "shah": 8427,
      "hungry": 8428,
      "penny": 8429,
      "experiments": 8430,
      "methods": 8431,
      "awhile": 8432,
      "eh": 8433,
      "pid": 8434,
      "abused": 8435,
      "soc": 8436,
      "trace": 8437,
      "exposition": 8438,
      "sheen": 8439,
      "blings": 8440,
      "stores": 8441,
      "ashi": 8442,
      "humble": 8443,
      ".......": 8444,
      "heartbreaking": 8445,
      "prompt": 8446,
      "sunset": 8447,
      "stereotyp": 8448,
      "miniseries": 8449,
      "evolution": 8450,
      "phew": 8451,
      "shameless": 8452,
      "resources": 8453,
      "mute": 8454,
      "ological": 8455,
      "corpses": 8456,
      "relatives": 8457,
      "musicians": 8458,
      "superhero": 8459,
      "messed": 8460,
      "dreary": 8461,
      "damned": 8462,
      "bravo": 8463,
      "tunnel": 8464,
      "thiev": 8465,
      "unreal": 8466,
      "divine": 8467,
      "marshall": 8468,
      "gibson": 8469,
      "deni": 8470,
      "creator": 8471,
      "sweat": 8472,
      "secretly": 8473,
      "businessman": 8474,
      "loneliness": 8475,
      "miracle": 8476,
      "doris": 8477,
      "prepare": 8478,
      "simultaneously": 8479,
      "essa": 8480,
      "shre": 8481,
      "deranged": 8482,
      "mony": 8483,
      "engers": 8484,
      "randomly": 8485,
      "crashes": 8486,
      "potter": 8487,
      "attered": 8488,
      "challenged": 8489,
      "gentleman": 8490,
      "excessive": 8491,
      "huston": 8492,
      "eis": 8493,
      "stale": 8494,
      "rides": 8495,
      "exceed": 8496,
      "este": 8497,
      "annoy": 8498,
      "teaches": 8499,
      "ethnic": 8500,
      "educational": 8501,
      "trademark": 8502,
      "pierre": 8503,
      "oy": 8504,
      "pad": 8505,
      "pour": 8506,
      "theor": 8507,
      "eras": 8508,
      "frances": 8509,
      "getic": 8510,
      "spa": 8511,
      "lasted": 8512,
      "purchased": 8513,
      "1998": 8514,
      "wolves": 8515,
      "idio": 8516,
      "borrowed": 8517,
      "activities": 8518,
      "hogan": 8519,
      "nees": 8520,
      "meas": 8521,
      "exhibit": 8522,
      "charged": 8523,
      "astically": 8524,
      "disgrace": 8525,
      "ieu": 8526,
      "phones": 8527,
      "nerd": 8528,
      "tempt": 8529,
      "snatch": 8530,
      "1984": 8531,
      "karate": 8532,
      "crisp": 8533,
      "exploration": 8534,
      "rhyth": 8535,
      "assault": 8536,
      "mam": 8537,
      "yelling": 8538,
      "vein": 8539,
      "vian": 8540,
      "scifi": 8541,
      "perman": 8542,
      "shear": 8543,
      "matically": 8544,
      "chooses": 8545,
      "musician": 8546,
      "drif": 8547,
      "garfield": 8548,
      "purposes": 8549,
      "squir": 8550,
      "reaching": 8551,
      "neighbour": 8552,
      "nonsens": 8553,
      "transp": 8554,
      "invented": 8555,
      "premiere": 8556,
      "ambiguous": 8557,
      "gap": 8558,
      "mick": 8559,
      "pus": 8560,
      "rehas": 8561,
      "reign": 8562,
      "eder": 8563,
      "stard": 8564,
      "stuart": 8565,
      "bbie": 8566,
      "retired": 8567,
      "photos": 8568,
      "crossing": 8569,
      "affairs": 8570,
      "phillips": 8571,
      "astoun": 8572,
      "pale": 8573,
      "chand": 8574,
      "unaware": 8575,
      "hoot": 8576,
      "auf": 8577,
      "evok": 8578,
      "newcom": 8579,
      "releases": 8580,
      "straightforward": 8581,
      "adopted": 8582,
      "enthusiasm": 8583,
      "30s": 8584,
      "frog": 8585,
      "lomb": 8586,
      "rance": 8587,
      "dose": 8588,
      "gled": 8589,
      "holden": 8590,
      "signed": 8591,
      "introduce": 8592,
      "dall": 8593,
      "gable": 8594,
      "ucin": 8595,
      "assure": 8596,
      "undeni": 8597,
      "agency": 8598,
      "elephant": 8599,
      "hayes": 8600,
      "neighbors": 8601,
      "quarter": 8602,
      "homosexuality": 8603,
      "fruit": 8604,
      "derivative": 8605,
      "ae": 8606,
      "iving": 8607,
      "mast": 8608,
      "sending": 8609,
      "witt": 8610,
      "enne": 8611,
      "enhan": 8612,
      "entit": 8613,
      "sling": 8614,
      "regards": 8615,
      "traits": 8616,
      "gym": 8617,
      "portions": 8618,
      "concepts": 8619,
      "seldom": 8620,
      "kas": 8621,
      "oly": 8622,
      "reson": 8623,
      "ora": 8624,
      "ghan": 8625,
      "outfit": 8626,
      "pole": 8627,
      "firstly": 8628,
      "valid": 8629,
      "nightclub": 8630,
      "distress": 8631,
      "joey": 8632,
      "pix": 8633,
      "bambi": 8634,
      "prejudice": 8635,
      "exposure": 8636,
      "dazz": 8637,
      "mia": 8638,
      "uity": 8639,
      "edith": 8640,
      "beware": 8641,
      "adore": 8642,
      "map": 8643,
      "april": 8644,
      "sometime": 8645,
      "clad": 8646,
      "recommendation": 8647,
      "coppola": 8648,
      "swan": 8649,
      "hallucin": 8650,
      "kurosawa": 8651,
      "kie": 8652,
      "xter": 8653,
      "oms": 8654,
      "unra": 8655,
      "uplifting": 8656,
      "mari": 8657,
      "izer": 8658,
      "performs": 8659,
      "screwed": 8660,
      "smell": 8661,
      "walt": 8662,
      "luci": 8663,
      "dylan": 8664,
      "tracking": 8665,
      "ordered": 8666,
      "banal": 8667,
      "eugene": 8668,
      "complaining": 8669,
      "quietly": 8670,
      "tacky": 8671,
      "wretched": 8672,
      "95": 8673,
      "jill": 8674,
      "sway": 8675,
      "chip": 8676,
      "abusive": 8677,
      "dowell": 8678,
      "exped": 8679,
      "click": 8680,
      "horn": 8681,
      "newman": 8682,
      "otto": 8683,
      "technicol": 8684,
      "destiny": 8685,
      "repeating": 8686,
      "assured": 8687,
      "silliness": 8688,
      "75": 8689,
      "chat": 8690,
      "unseen": 8691,
      "consum": 8692,
      "protest": 8693,
      "brush": 8694,
      "interests": 8695,
      "shod": 8696,
      "ett": 8697,
      "interestingly": 8698,
      "moronic": 8699,
      "legends": 8700,
      "teachers": 8701,
      "metro": 8702,
      "shooto": 8703,
      "petty": 8704,
      "package": 8705,
      "minister": 8706,
      "aaaa": 8707,
      "improvement": 8708,
      "infin": 8709,
      "reci": 8710,
      "enig": 8711,
      "encourage": 8712,
      "oft": 8713,
      "shared": 8714,
      "shares": 8715,
      "creen": 8716,
      "gency": 8717,
      "hello": 8718,
      "region": 8719,
      "dancers": 8720,
      "custom": 8721,
      "lively": 8722,
      "brig": 8723,
      "waitress": 8724,
      "dresses": 8725,
      "lenny": 8726,
      "primitive": 8727,
      "complaints": 8728,
      "wisdom": 8729,
      "rendered": 8730,
      "inexplicably": 8731,
      "scooby": 8732,
      "bars": 8733,
      "loren": 8734,
      "solo": 8735,
      "poem": 8736,
      "hers": 8737,
      "drain": 8738,
      "colm": 8739,
      "elect": 8740,
      "mothers": 8741,
      "greedy": 8742,
      "plicity": 8743,
      "imaginable": 8744,
      "darn": 8745,
      "advanced": 8746,
      "patricia": 8747,
      "incomprehensible": 8748,
      ".(": 8749,
      "lunch": 8750,
      "ume": 8751,
      "uber": 8752,
      "butcher": 8753,
      "minus": 8754,
      "misleading": 8755,
      "underworld": 8756,
      "constit": 8757,
      "maxim": 8758,
      "fascinated": 8759,
      "pirates": 8760,
      "debate": 8761,
      "integrity": 8762,
      "resident": 8763,
      "paradise": 8764,
      "crocodile": 8765,
      "//": 8766,
      "bick": 8767,
      "crown": 8768,
      "tum": 8769,
      "unle": 8770,
      "filler": 8771,
      "pron": 8772,
      "merits": 8773,
      "vince": 8774,
      "hung": 8775,
      "brooklyn": 8776,
      "phantasm": 8777,
      "destroying": 8778,
      "natalie": 8779,
      "nonsensical": 8780,
      "hans": 8781,
      "laz": 8782,
      "inability": 8783,
      "tops": 8784,
      "behold": 8785,
      "dell": 8786,
      "prose": 8787,
      "mytho": 8788,
      "stranded": 8789,
      "stern": 8790,
      "definition": 8791,
      "murdering": 8792,
      "indiana": 8793,
      "profanity": 8794,
      "continually": 8795,
      "refused": 8796,
      "posted": 8797,
      "referred": 8798,
      "testament": 8799,
      "manipulative": 8800,
      "baffl": 8801,
      "macho": 8802,
      "becca": 8803,
      "landing": 8804,
      "benjam": 8805,
      "1993": 8806,
      "accurately": 8807,
      "astronaut": 8808,
      "macy": 8809,
      "nom": 8810,
      "osing": 8811,
      "sized": 8812,
      "trend": 8813,
      "vag": 8814,
      "playboy": 8815,
      "insip": 8816,
      "explores": 8817,
      "homes": 8818,
      "industrial": 8819,
      "voyage": 8820,
      "precisely": 8821,
      "prominent": 8822,
      "40s": 8823,
      "dates": 8824,
      "vital": 8825,
      "leap": 8826,
      "neath": 8827,
      "shay": 8828,
      "shoe": 8829,
      "shoulder": 8830,
      "trivial": 8831,
      "dvds": 8832,
      "earl": 8833,
      "purple": 8834,
      "literary": 8835,
      "grief": 8836,
      "sketch": 8837,
      "atlant": 8838,
      "quentin": 8839,
      "insipid": 8840,
      ")!": 8841,
      "22": 8842,
      "mug": 8843,
      "nbc": 8844,
      "vain": 8845,
      "edgy": 8846,
      "ambi": 8847,
      "unky": 8848,
      "specially": 8849,
      "walsh": 8850,
      "craven": 8851,
      "supported": 8852,
      "minority": 8853,
      "companies": 8854,
      "assassination": 8855,
      "frost": 8856,
      "apocalyptic": 8857,
      "benjamin": 8858,
      "ckey": 8859,
      "vard": 8860,
      "lix": 8861,
      "liest": 8862,
      "urs": 8863,
      "descent": 8864,
      "surfing": 8865,
      "olds": 8866,
      "brood": 8867,
      "compelled": 8868,
      "babies": 8869,
      "randol": 8870,
      "lengthy": 8871,
      "hooker": 8872,
      "pirate": 8873,
      "jacket": 8874,
      "coincidence": 8875,
      "3000": 8876,
      "daw": 8877,
      "opt": 8878,
      "revers": 8879,
      "demented": 8880,
      "graf": 8881,
      "davies": 8882,
      "1978": 8883,
      "masses": 8884,
      "bunuel": 8885,
      "audition": 8886,
      "significance": 8887,
      "snoop": 8888,
      "analysis": 8889,
      "cronenberg": 8890,
      "28": 8891,
      "cg": 8892,
      "reeves": 8893,
      "amused": 8894,
      "poo": 8895,
      "teams": 8896,
      "woe": 8897,
      "fathers": 8898,
      "masterpieces": 8899,
      "suffice": 8900,
      "fuel": 8901,
      "widely": 8902,
      "mobile": 8903,
      "muddled": 8904,
      "oman": 8905,
      "gems": 8906,
      "perpet": 8907,
      "underneath": 8908,
      "positions": 8909,
      "addiction": 8910,
      "blacks": 8911,
      "hunters": 8912,
      "respective": 8913,
      "objective": 8914,
      "challenges": 8915,
      "injured": 8916,
      "saint": 8917,
      "orson": 8918,
      "wholly": 8919,
      "undercover": 8920,
      "nerve": 8921,
      "additional": 8922,
      "fairbanks": 8923,
      "expressed": 8924,
      "kapoor": 8925,
      "stalker": 8926,
      "1969": 8927,
      "authorities": 8928,
      "patients": 8929,
      "oriented": 8930,
      "soccer": 8931,
      "bread": 8932,
      "dame": 8933,
      "dante": 8934,
      "mber": 8935,
      "sly": 8936,
      "amir": 8937,
      "carni": 8938,
      "screens": 8939,
      "warrant": 8940,
      "located": 8941,
      "chuckle": 8942,
      "fifties": 8943,
      "obligatory": 8944,
      "widescreen": 8945,
      "thieves": 8946,
      "entitled": 8947,
      "ghet": 8948,
      "pc": 8949,
      "rou": 8950,
      "sig": 8951,
      "aling": 8952,
      "stap": 8953,
      "rochester": 8954,
      "pecu": 8955,
      "nemes": 8956,
      "mentions": 8957,
      "internal": 8958,
      "muslim": 8959,
      "borg": 8960,
      "medic": 8961,
      "morals": 8962,
      "crimin": 8963,
      "assumed": 8964,
      "drinks": 8965,
      "undant": 8966,
      "paranoia": 8967,
      "inevitably": 8968,
      "crip": 8969,
      "option": 8970,
      "arrow": 8971,
      "accompany": 8972,
      "unexplained": 8973,
      "eline": 8974,
      "females": 8975,
      "tramp": 8976,
      "awfully": 8977,
      "firing": 8978,
      "thrall": 8979,
      "wardrobe": 8980,
      "aneous": 8981,
      "gorilla": 8982,
      "suspend": 8983,
      "culmin": 8984,
      "scottish": 8985,
      "1939": 8986,
      "axe": 8987,
      "olivier": 8988,
      "monkeys": 8989,
      "preachy": 8990,
      "amusement": 8991,
      "aristocr": 8992,
      "femme": 8993,
      "grip": 8994,
      "gender": 8995,
      "heston": 8996,
      "kit": 8997,
      "mans": 8998,
      "dont": 8999,
      "underwater": 9000,
      "cinemas": 9001,
      "shaking": 9002,
      "symbo": 9003,
      "boxer": 9004,
      "placing": 9005,
      "1987": 9006,
      "frozen": 9007,
      "randolph": 9008,
      "ghetto": 9009,
      "pimp": 9010,
      "rehears": 9011,
      "scul": 9012,
      "uster": 9013,
      "shin": 9014,
      "aches": 9015,
      "passengers": 9016,
      "deserving": 9017,
      "sellers": 9018,
      "informed": 9019,
      "fiancee": 9020,
      "hulk": 9021,
      "fundamental": 9022,
      "hindi": 9023,
      "jed": 9024,
      "naught": 9025,
      "rear": 9026,
      "edit": 9027,
      "sugar": 9028,
      "gos": 9029,
      "blunt": 9030,
      "marries": 9031,
      "ilyn": 9032,
      "stored": 9033,
      "buzz": 9034,
      "ridge": 9035,
      "exceptions": 9036,
      "victory": 9037,
      "juan": 9038,
      "refuse": 9039,
      "gloom": 9040,
      "conviction": 9041,
      "predecessor": 9042,
      "technicolor": 9043,
      "eats": 9044,
      "lowe": 9045,
      "delet": 9046,
      "demise": 9047,
      "ceme": 9048,
      "comings": 9049,
      "conscience": 9050,
      "sharing": 9051,
      "wesley": 9052,
      "demonic": 9053,
      "jumped": 9054,
      "brutality": 9055,
      "opportunities": 9056,
      "fifth": 9057,
      "knocked": 9058,
      "shift": 9059,
      "snipes": 9060,
      "empathy": 9061,
      "grateful": 9062,
      "oned": 9063,
      "dope": 9064,
      "shack": 9065,
      "shouting": 9066,
      "ounce": 9067,
      "gum": 9068,
      "ensen": 9069,
      "biting": 9070,
      "probable": 9071,
      "clive": 9072,
      "slack": 9073,
      "passage": 9074,
      "rises": 9075,
      "1974": 9076,
      "troubles": 9077,
      "machines": 9078,
      "juliet": 9079,
      "losers": 9080,
      "frightened": 9081,
      "stallone": 9082,
      "og": 9083,
      "tip": 9084,
      "chal": 9085,
      "entering": 9086,
      "imper": 9087,
      "nephew": 9088,
      "proving": 9089,
      "tyler": 9090,
      "crus": 9091,
      "iley": 9092,
      "sublime": 9093,
      "marty": 9094,
      "doubts": 9095,
      "races": 9096,
      "1940s": 9097,
      "lynn": 9098,
      "resemble": 9099,
      "convention": 9100,
      "lionel": 9101,
      "stretched": 9102,
      "lackluster": 9103,
      "unravel": 9104,
      "!'": 9105,
      "dic": 9106,
      "remarks": 9107,
      "rebecca": 9108,
      "sein": 9109,
      "lized": 9110,
      "deer": 9111,
      "petr": 9112,
      "realm": 9113,
      "horny": 9114,
      "highway": 9115,
      "barney": 9116,
      "calcul": 9117,
      "cultures": 9118,
      "sunny": 9119,
      "1989": 9120,
      "threatens": 9121,
      "apolo": 9122,
      "discussing": 9123,
      "insightful": 9124,
      "disguise": 9125,
      "grainy": 9126,
      "nemesis": 9127,
      "cad": 9128,
      "fart": 9129,
      "mig": 9130,
      "mck": 9131,
      "nand": 9132,
      "tapes": 9133,
      "stare": 9134,
      "molly": 9135,
      "icable": 9136,
      "wiel": 9137,
      "arest": 9138,
      "genet": 9139,
      "suburban": 9140,
      "pax": 9141,
      "counting": 9142,
      "morse": 9143,
      "1971": 9144,
      "mixing": 9145,
      "catchy": 9146,
      "privile": 9147,
      "motorcycle": 9148,
      "sang": 9149,
      "ensure": 9150,
      "whale": 9151,
      "coaster": 9152,
      "astaire": 9153,
      "grudge": 9154,
      "clou": 9155,
      "orton": 9156,
      "steady": 9157,
      "simpsons": 9158,
      "shaky": 9159,
      "collector": 9160,
      "christians": 9161,
      "1973": 9162,
      "1988": 9163,
      "respectable": 9164,
      "subjected": 9165,
      "attract": 9166,
      "jersey": 9167,
      "kov": 9168,
      "sara": 9169,
      "cruelty": 9170,
      "wagner": 9171,
      "wrenching": 9172,
      "coffin": 9173,
      "shoddy": 9174,
      "hend": 9175,
      "lt": 9176,
      "oning": 9177,
      "orleans": 9178,
      "adjust": 9179,
      "backwards": 9180,
      "surgery": 9181,
      "taker": 9182,
      "breast": 9183,
      "earn": 9184,
      "presenting": 9185,
      "annon": 9186,
      "sians": 9187,
      "instinct": 9188,
      "thorn": 9189,
      "locals": 9190,
      "positively": 9191,
      "flower": 9192,
      "symbolic": 9193,
      "deceased": 9194,
      "immortal": 9195,
      "lifeless": 9196,
      "aaron": 9197,
      "cs": 9198,
      "seam": 9199,
      "grams": 9200,
      "stopping": 9201,
      "generate": 9202,
      "rukh": 9203,
      "dump": 9204,
      "fury": 9205,
      "attacking": 9206,
      "heather": 9207,
      "disgusted": 9208,
      "ignorance": 9209,
      "hopelessly": 9210,
      "manuelle": 9211,
      "eag": 9212,
      "lily": 9213,
      "ctic": 9214,
      "gran": 9215,
      "fog": 9216,
      "bergh": 9217,
      "strongest": 9218,
      "identical": 9219,
      "1994": 9220,
      "containing": 9221,
      "stunned": 9222,
      "kissing": 9223,
      "rejected": 9224,
      "21": 9225,
      "dwell": 9226,
      "hats": 9227,
      "pony": 9228,
      "pisto": 9229,
      "stages": 9230,
      "noises": 9231,
      "veron": 9232,
      "hep": 9233,
      "whore": 9234,
      "disliked": 9235,
      "oppress": 9236,
      "completed": 9237,
      "cube": 9238,
      "legacy": 9239,
      "sarandon": 9240,
      "fascination": 9241,
      "engrossing": 9242,
      "hale": 9243,
      "kaz": 9244,
      "wakes": 9245,
      "inhab": 9246,
      "enthrall": 9247,
      "pocket": 9248,
      "felix": 9249,
      "construct": 9250,
[...]
